ffc1
ff90
0044
ff8a
0015
0076
ffa1
000a
000e
0042
ffd0
0020
ffda
fff6
fff0
fff2
0022
0029
ff98
0058
fff3
ff9a
000e
ffda
ff60
fea3
ffe5
ffa4
002d
0019
ffac
ffce
001c
fff4
002e
ff95
001c
ffff
008d
0011
ffe4
ffe3
ffec
ffbc
ff94
ffe3
0004
003c
003b
ffb0
0007
003f
fff3
003f
005d
fffb
003b
004f
ffe8
005b
fffe
fffa
ffd8
fffe
ffca
ffbd
ffb0
fff4
ffd4
0055
fff7
004e
ffc8
fe75
fff5
ffd8
ffd4
000e
0061
ffe7
0019
fff3
0004
ffd3
ffe1
0003
ffe7
ffd2
0017
008f
ffef
0082
00a5
ffb7
0013
000f
ffd0
000c
fff3
ff78
0032
002d
ffb4
0069
ff76
ff8d
ffe6
0017
0076
ff7e
ffba
000b
ffe4
ff8b
fff5
ffe2
fff0
ffd2
005c
001b
000b
ffa8
0003
0008
ffce
0072
ffdc
ffdf
ffa9
ffc2
ffa1
0010
0063
001a
ffe3
fff2
005e
001b
0001
000f
0018
ffc0
ffc1
004a
0031
ff59
0019
0027
ffe1
0024
ffa5
ffbb
0037
006e
001c
0004
0025
0039
0042
fff4
