fe
fc
08
f9
06
f9
fc
06
00
f9
f9
02
05
07
09
06
f8
f8
fe
f8
ff
05
f8
01
f8
09
00
f9
01
02
00
fa
f8
fe
f7
01
fc
f9
06
ff
01
ff
fb
fc
ff
f8
03
fb
06
fa
01
fe
08
f8
06
fa
04
f9
fd
ff
fa
f9
fe
01
f9
05
fb
00
04
f9
04
00
fb
fe
02
fb
02
03
f8
04
00
02
08
fb
fd
06
02
03
07
f9
f8
fd
09
07
f9
fb
09
04
02
fd
01
f9
08
fa
03
06
02
ff
02
02
05
01
01
03
f7
05
03
fc
f8
08
06
fb
fb
06
06
f8
07
07
04
05
07
02
00
06
fa
00
fc
01
03
00
fc
03
ff
09
08
02
fa
03
fa
fa
ff
fc
09
fd
00
02
04
f8
fa
01
00
fc
09
fa
00
f8
09
fa
fd
02
fb
fd
ff
02
fc
fa
06
f9
f8
00
ff
08
08
fa
f8
f8
02
02
01
fe
fb
05
03
05
cc
30
80
0c
c1
02
fe
fe
7f
ff
7f
7f
06
8e
fd
07
ab
30
80
80
80
08
f7
f9
7f
05
7f
7f
06
7f
08
07
de
38
06
80
80
fc
f8
07
80
07
7f
f8
fd
7f
fe
f9
fe
20
f9
83
cb
f8
03
fe
a0
02
7f
f7
06
7f
07
04
f7
02
09
03
09
fe
fe
02
fc
f9
fc
fa
fb
fb
08
09
07
00
fc
06
04
f8
fd
08
08
f8
07
f7
fb
00
04
fd
f9
fa
01
09
00
fd
07
ff
04
07
f9
fc
07
fd
fb
fa
07
fe
07
fa
08
06
f9
02
f9
04
04
fc
fe
fa
09
f7
00
03
08
fd
07
fe
f7
fc
03
f8
fe
fe
f9
fc
09
09
f8
fc
f7
06
fd
fd
08
ff
09
fa
ff
05
08
fd
ff
01
00
09
fa
00
fb
f7
07
02
fe
07
06
02
02
fe
fe
fe
09
ff
fa
03
fd
00
fc
05
03
02
ff
fd
fa
06
fc
09
00
08
fb
ff
09
02
ff
fd
fd
f9
f8
05
fc
f8
00
fc
fd
04
fa
f7
03
f7
01
03
07
fd
09
fe
fd
f9
f8
07
ff
01
05
04
03
09
fe
f9
fa
f9
f8
02
f8
01
01
fa
03
fa
03
05
09
01
ff
07
fc
f7
01
01
03
fe
fa
06
08
fe
05
06
08
00
03
fa
06
fd
03
f9
06
fd
02
01
03
fc
08
fa
ff
ff
f9
f7
fd
fb
fe
04
04
09
04
fb
fa
fe
f7
03
fd
fd
fe
03
fe
fd
fc
fa
01
fe
06
00
ff
07
08
fe
08
f9
07
04
fb
fd
07
06
f7
01
fa
ff
e6
08
06
6c
02
28
f8
fc
7f
59
33
66
06
07
03
00
3a
00
05
b6
d4
62
80
fc
7f
7f
7f
6b
05
01
f0
f8
27
fb
80
80
bb
52
80
08
7f
02
7f
07
07
00
d1
07
18
22
80
80
b1
65
80
28
7f
7f
7f
31
fe
6a
c3
f9
80
7f
80
80
80
3c
81
f7
7f
7f
7f
0a
03
80
a8
00
80
7f
80
80
80
7f
80
f9
7f
7f
7f
dc
fb
3b
e8
f8
80
7f
80
80
80
7f
80
85
7f
7f
7f
7f
fb
80
ff
04
ee
7f
80
80
7f
7f
80
c1
7f
7f
7f
7f
00
80
fb
00
80
7f
80
80
7f
7f
80
7f
7f
80
7f
7f
02
80
32
f8
80
80
80
14
7f
7f
80
7f
7f
80
7f
7f
fb
80
ea
09
7f
80
44
7f
7f
7f
3b
7f
80
7f
80
80
fc
34
ea
03
7f
7f
08
80
80
7f
80
7f
2f
7f
80
80
04
7f
d4
fc
1e
7f
04
80
80
7f
80
1c
80
7f
80
80
07
7f
d2
fe
80
7f
89
80
80
7f
80
d1
7f
32
7f
7f
00
7f
04
f8
b1
7f
80
80
80
7f
89
7f
7f
7f
7f
7f
03
80
fd
07
1c
80
a8
80
a9
7f
80
7f
7f
7f
7f
7f
fa
80
00
01
80
01
df
80
80
7f
80
7f
7f
6f
7f
7f
fc
80
09
ff
80
ff
09
82
80
7f
80
7f
7f
28
7f
7f
fd
80
fd
04
ea
fd
ff
80
ae
7f
80
7f
7f
80
7f
7f
00
b5
06
fd
11
05
08
80
04
7f
80
f9
7f
80
7f
7f
f9
03
08
00
ff
ff
03
f9
fd
05
f9
f8
04
fa
06
f8
02
09
03
01
fd
06
05
07
fc
fd
08
f8
f9
f9
fa
02
01
f7
07
fa
08
05
09
02
07
07
fd
fa
03
06
f9
07
02
06
06
fd
04
fb
f7
fb
02
00
01
ff
01
fe
06
fd
f8
03
02
f8
09
fa
fa
05
03
ff
02
04
f8
ff
fb
ff
02
07
fe
f7
08
05
05
08
fb
f7
09
01
05
f9
f9
ff
ff
08
fd
fe
f2
02
c2
9f
05
7f
f7
02
7f
7f
7f
7f
07
02
7f
fb
0a
ec
f9
80
7f
a6
80
c3
80
0f
90
7f
03
ec
7f
ff
80
80
e4
80
7f
a8
80
c5
7f
80
7f
7f
f7
80
bc
f8
71
80
bc
e0
80
7f
80
39
7f
73
7f
7f
02
80
18
fe
80
2b
80
80
80
76
80
27
7f
7f
7f
7f
f7
80
80
fe
80
80
80
80
c5
7f
80
e6
7f
7f
7f
7f
00
80
80
07
00
80
80
80
80
80
80
7b
7f
c0
7f
7f
04
34
80
fa
f1
80
80
80
80
80
80
7f
7f
7f
7f
80
fc
7f
80
04
7f
7f
80
80
80
80
80
80
7f
7f
7f
80
07
7f
80
06
7f
7f
80
80
80
7f
80
80
7f
7f
7f
8d
fa
7f
80
fb
7f
79
80
80
80
3e
80
80
7f
7f
7f
80
fb
93
7f
fd
12
80
80
80
80
7f
80
80
7f
7f
80
80
f7
7f
fa
05
7f
80
80
80
80
7f
80
80
7f
7f
7f
80
f0
7f
80
f7
80
80
80
80
80
7f
80
80
6a
7f
7f
7f
eb
80
80
fe
80
78
80
ab
80
7f
80
80
40
7f
7f
7f
ea
f6
80
06
80
7f
80
7f
80
7f
80
9f
80
7f
7f
e9
f8
80
80
fb
80
7f
80
80
80
7f
80
80
b7
7f
80
30
f7
80
80
08
80
80
80
80
80
7f
80
7f
7f
80
7f
7f
f9
80
80
ff
7f
80
80
80
80
7f
80
7f
7f
80
7f
7f
f1
80
80
03
80
80
80
80
80
80
80
7f
80
7f
7f
7f
f2
80
dd
00
e4
80
a0
80
7f
7f
80
7f
7f
80
7f
7f
ff
80
e9
fb
80
7f
da
80
80
7f
80
87
7f
6c
7f
f0
06
fe
e7
fe
c2
7f
07
80
80
7f
80
80
80
7f
7f
80
02
3b
06
04
f5
7f
18
48
e0
1a
bd
80
80
80
7f
b8
03
fa
fb
04
08
08
fa
fe
01
08
04
f9
05
07
f8
ff
fe
fc
fe
01
01
07
04
fa
06
07
04
06
f7
05
f9
04
fe
ff
00
f7
fc
07
07
09
fd
01
05
fe
fd
06
f7
08
00
fc
f8
05
fa
fc
04
01
01
05
01
09
02
02
06
f8
06
08
fc
ff
7f
a3
a8
80
f8
7f
ff
cd
f5
7f
80
80
04
7f
7f
07
7f
80
da
80
7f
f3
80
ca
80
7f
80
7f
09
7f
7e
fe
7f
80
14
80
7f
7f
80
7f
7f
81
80
7f
fc
80
f9
fc
7f
80
ab
80
80
7f
80
7f
80
80
7f
7f
fd
7f
80
02
7f
80
80
80
80
7f
80
80
7f
80
7f
ae
fa
7f
80
01
7f
33
80
80
80
7f
80
7f
63
80
7f
7f
f9
7f
80
f9
7f
7f
fe
80
7f
80
80
80
7f
80
7f
7f
ff
7f
80
04
80
00
7f
80
57
7f
80
80
7f
03
7f
7f
f9
7f
80
01
80
f6
7f
80
7f
7f
80
75
7f
bd
7f
80
01
7f
80
06
7f
80
7f
80
7f
80
80
6f
7f
80
7f
80
f5
7f
80
fa
7f
7f
7f
80
da
e8
80
7f
6a
b2
80
80
f2
7f
80
00
c7
9c
97
80
7f
7f
80
09
7f
2d
80
80
ec
7f
80
fe
c6
c7
62
80
7f
7f
80
e6
7f
80
7f
7f
f6
7f
80
09
7f
80
80
80
10
7f
80
80
7f
80
80
7f
08
7f
80
03
36
80
80
80
7f
80
80
f3
80
80
a2
80
ee
e9
80
07
08
80
73
80
4b
e8
80
80
80
80
7f
95
ec
80
80
f2
80
7f
80
a1
82
7f
80
80
80
80
80
1b
f9
80
80
0c
80
80
7f
7f
9d
7f
80
7f
b3
78
93
6a
f8
80
7f
16
23
80
7f
80
7f
7f
80
80
80
80
80
e7
f6
80
7f
15
80
80
7f
7f
80
7f
80
80
7d
80
7f
75
f5
80
28
ff
5b
7f
7f
7f
80
a9
80
80
80
7f
80
80
00
80
e8
ff
80
7f
20
80
7f
7f
7f
80
7f
7f
7f
7f
fb
80
80
06
80
7f
7f
80
80
7f
80
80
7f
80
7f
7f
09
80
f6
01
80
7f
f9
80
80
7f
80
7f
7f
80
80
80
07
80
01
06
ad
7f
03
03
80
7f
80
7f
7f
80
7f
80
09
80
f7
01
ff
00
fa
fb
03
08
f9
fe
03
02
05
fb
07
f7
00
fe
08
06
00
fe
fb
ff
06
ff
fe
fa
ff
fc
f8
02
09
06
7f
24
36
fa
fc
7f
01
7f
fe
03
80
f8
06
69
01
f7
7f
ff
ce
80
80
80
00
80
55
7f
80
80
fe
7f
7f
01
7f
7f
7f
80
7f
80
7f
80
80
f3
80
b4
09
7f
59
fd
7f
80
7f
7f
7f
80
7f
80
80
80
80
80
f8
2b
31
ff
72
80
7f
7f
e6
80
80
7f
82
80
7f
fc
16
7f
80
03
7f
6f
7f
80
80
80
80
7f
7f
f8
7f
80
10
7f
f1
06
7f
7f
35
35
7f
80
80
7f
7f
80
7f
80
11
7f
80
f9
7f
80
80
69
7f
80
80
80
5c
7f
7f
80
02
7f
80
04
7f
7f
80
80
7f
7f
80
80
7f
85
7f
80
00
7f
80
ea
54
41
ac
80
7f
7f
80
80
03
6d
7f
80
0c
7f
80
f2
7f
7f
7f
af
7f
19
80
80
7f
80
80
80
0c
7f
80
f4
7f
7f
80
80
80
b8
0a
a5
7f
80
7f
80
dd
7f
80
f9
7f
80
80
7f
7f
80
80
0b
7f
9c
80
80
01
80
c5
ec
d6
7f
7f
ad
2c
c8
80
80
7f
80
7f
80
07
7f
7f
f5
7f
7f
7f
80
7f
7f
80
35
7f
4f
80
80
13
7f
80
f8
f6
7f
7f
80
80
85
80
80
4a
3b
25
d3
f4
7f
80
e9
80
e1
7f
80
80
80
80
80
7f
80
80
7f
e8
7f
7f
f7
23
16
7f
80
80
7f
80
03
b9
80
80
d6
f4
7f
80
13
5c
80
16
a5
df
fc
bb
dc
7f
7f
e0
7f
f0
c0
80
08
80
20
7f
7f
b6
80
80
c6
17
80
80
3e
f8
7f
80
11
80
9b
7f
7f
80
7f
7f
80
80
80
24
7e
e8
80
80
08
36
80
7f
7f
7f
7f
7f
80
80
80
80
7f
e9
60
80
fa
80
76
7f
7f
7f
7f
7f
7f
80
80
e1
c0
fb
80
a9
02
c0
7f
7f
7f
80
80
9f
7f
7f
80
a3
80
02
80
7f
fc
7f
7f
7f
7f
80
7f
80
7f
7f
80
80
80
ff
72
7f
01
7f
7f
7f
80
80
7f
80
7f
7f
7f
29
48
02
80
80
08
7f
80
00
b8
ff
fa
80
7f
7f
c3
7f
7f
03
80
05
ff
fd
03
fe
08
f8
01
fa
06
fa
09
04
fe
fd
fe
05
07
01
01
fb
00
f8
03
fb
fa
02
fb
fc
01
07
00
12
f9
7f
8b
40
80
80
fd
80
77
b7
7f
80
80
06
7f
80
09
7f
1d
7f
80
7f
80
80
7f
80
7f
80
80
07
7f
7f
fd
7f
51
8c
80
7f
80
7f
08
80
80
7f
80
0c
7f
7f
fb
7f
80
d9
7f
7f
7f
7f
7f
80
80
80
80
0e
80
14
08
7f
7f
80
ba
3b
80
3a
7f
5e
70
7f
80
03
7f
04
fb
7f
7f
80
7f
e9
80
7f
7f
51
54
81
80
01
80
80
e8
7f
7f
80
7f
cf
80
7f
80
be
80
e4
80
09
b4
5a
f7
28
80
1e
1a
80
7f
3e
80
7f
80
80
80
12
7f
80
f6
80
7f
f2
83
44
7f
80
ef
7f
80
10
59
0f
7f
80
ea
7f
24
8b
80
08
80
7f
bc
7f
80
80
7f
0c
98
80
ec
7f
3e
d8
80
80
8f
4c
49
62
80
0e
5b
0d
7f
80
ed
7f
7f
80
80
7f
cc
80
85
80
80
92
4c
08
ec
80
fa
7f
7f
80
ff
74
7f
80
ec
85
b6
7f
7f
00
80
aa
eb
7f
d2
1a
80
7f
7f
80
d8
80
7f
7f
24
fb
7f
80
f6
45
7f
80
80
7f
7f
80
fd
16
df
d3
80
e8
7f
80
f5
4e
7f
80
7f
7f
7f
80
7f
25
8a
f2
7f
ea
7f
80
f8
bd
7f
80
ca
80
7f
80
80
80
cc
7f
80
eb
7b
80
f5
7f
7f
a7
96
7f
3e
80
80
e7
c0
7f
7f
f6
80
80
07
06
7f
7f
0c
fd
03
80
2b
40
80
7f
6d
fa
7f
80
0a
80
80
80
7f
80
aa
80
89
7f
7f
7f
9b
f5
7f
7f
05
1b
80
42
01
f1
7f
54
7f
7f
1a
80
7f
f0
7f
7f
09
82
9a
7c
7f
8e
7f
7f
80
62
7f
7f
80
ea
7f
7f
fb
80
03
a9
7f
80
33
7f
80
80
7f
d8
5f
f7
80
7f
fb
7f
7f
7f
29
80
7f
7f
80
7f
80
80
80
07
fb
7f
f8
7f
7f
41
80
80
80
80
6e
7f
80
7f
7f
01
b5
7f
fe
5b
80
26
e4
80
7f
7f
7f
7f
5f
7f
7f
07
80
f8
f8
f7
01
05
fc
05
09
fa
05
ff
fa
ff
f8
09
fc
21
f8
7f
7f
7f
07
04
29
80
7f
02
fe
28
80
05
7f
7f
f9
eb
7f
7f
80
80
7f
ce
7f
80
7f
7f
e8
06
7f
7f
f7
7f
7c
7f
cc
7f
80
7f
7f
80
80
7f
80
02
7f
7f
f8
30
80
7f
7f
cf
b5
7f
7f
80
80
7f
80
0c
7f
7f
fb
76
7f
80
7f
a2
7f
7f
0b
29
80
9b
7f
18
80
78
fa
7f
7f
dc
dc
7f
80
7f
7f
7c
ee
b4
80
10
36
80
f1
a5
1f
80
00
2d
7f
7f
80
7f
00
80
80
00
80
1b
f3
f8
3c
7f
80
80
da
7f
9a
80
80
80
7f
0a
80
80
e8
37
7f
28
7f
80
80
7f
80
6e
80
2c
80
02
11
87
ee
61
7f
7f
80
d7
82
f4
34
80
80
80
80
ff
7f
77
f8
7f
08
7f
80
b7
f5
7f
80
7f
7f
fc
52
0b
7f
7f
ea
fa
7f
7f
9b
5a
7f
7f
ec
7f
7f
80
e2
f9
7f
80
f7
70
76
7f
88
52
e7
80
25
32
80
80
80
11
7f
80
f1
0b
7f
7f
7f
49
73
57
14
61
c0
80
6c
01
7f
80
eb
e5
7f
7f
35
7f
7f
79
80
80
c5
56
7f
de
96
80
e9
7f
7f
7f
80
7f
16
31
80
80
80
80
01
e3
7f
80
ea
7f
7f
7f
09
b8
3d
7f
7f
96
ad
80
7f
eb
3f
81
f0
3a
6f
7f
80
7f
3c
93
3e
96
1a
80
80
f0
0d
ff
f6
80
7f
7f
7f
7f
7f
7f
7f
7f
97
80
80
ee
f3
80
ea
25
7f
7f
7f
e0
7f
f8
7f
15
7f
8d
7f
ed
c4
80
e8
a6
7f
7f
72
7f
80
7f
80
97
6a
80
4a
08
80
c6
f7
80
80
81
80
4f
7f
7f
80
7f
f3
80
7f
10
7f
80
fc
80
8e
80
7f
7f
de
0d
7f
7f
d1
80
80
0b
80
7f
08
80
80
80
7f
80
7f
80
30
7f
80
80
eb
09
80
f1
02
7f
7f
7f
7f
80
7f
7f
80
7f
80
0e
92
00
80
80
fb
7f
7f
ac
7f
80
7f
7f
7f
7f
f1
80
80
fa
89
7f
00
9b
80
7f
80
4f
7f
80
80
76
7f
7f
7f
fe
22
7f
08
80
78
21
1a
fb
00
7f
06
05
fa
fa
02
08
10
7f
00
7f
7f
7f
71
76
7f
80
7f
80
7f
2d
80
f9
7f
7f
fc
80
7f
7f
7f
80
3e
7f
7f
80
7f
18
7f
08
7f
7f
02
f0
aa
7f
7f
3b
7f
7f
7f
80
80
80
80
f7
7f
6c
fe
7f
9e
7f
7f
49
80
65
7f
c4
80
7f
7f
0e
7f
8b
fb
7f
7f
80
80
7f
7f
7f
80
7f
80
80
1c
06
7f
7f
fc
66
80
7f
da
7f
80
7f
7f
3c
80
a4
80
05
7f
7f
f0
80
80
80
80
80
22
34
89
c8
80
80
80
0c
7f
95
ea
d8
ee
80
80
80
80
80
80
7f
80
80
80
02
7f
7f
ea
80
fc
cf
80
3e
45
7f
e3
7f
80
80
5b
f1
7f
16
e9
80
7f
62
80
a6
7f
58
b5
7f
aa
80
c4
ef
17
0c
e9
80
7f
4e
80
7f
2e
80
1f
92
38
7f
d9
eb
7f
7f
e8
70
4d
7f
12
27
2c
cd
7f
9b
26
80
cd
e9
1b
80
f9
f7
60
7f
80
7f
80
7f
80
23
80
80
8c
ee
7f
a3
eb
23
b5
7f
b0
e3
7f
bb
80
c1
7f
07
c2
e2
7f
80
ee
7f
7f
7f
7f
7f
47
80
d8
d2
96
80
7f
ee
7f
04
f1
7f
7f
7f
80
7f
7f
2f
f1
80
c6
c0
51
ee
73
f0
ee
01
6b
7f
96
7f
7f
7f
56
82
90
4a
7f
ee
7f
7f
f8
8f
7f
37
7f
57
7f
80
45
7f
80
80
7f
e8
6d
7f
f4
91
fd
7f
cc
5f
7f
61
3f
f0
c6
80
6c
f3
7f
db
f6
12
28
8d
d6
90
7f
7f
7f
87
7f
80
0e
0a
7f
1f
eb
97
7f
d9
4d
39
7f
04
ad
b0
80
ca
30
08
57
7a
e8
cc
f1
80
0b
89
78
7f
7f
7f
80
80
53
17
63
80
05
80
80
80
68
13
7f
7f
7f
7c
5b
80
3b
12
80
53
f7
80
7f
80
80
80
7f
7f
80
7f
80
7f
7f
10
80
7f
fd
7f
7f
bd
7f
80
7f
0a
7f
7f
80
f7
7f
f6
c5
80
07
7f
7f
7f
7f
80
7f
7f
7f
7f
80
7f
80
f2
80
7f
fe
80
80
7f
80
80
7f
80
fd
7f
7f
7f
80
07
80
7f
02
8e
5a
c8
80
80
fd
80
cf
01
f8
7f
7f
04
7f
7f
fd
80
7f
35
7f
16
f9
7f
80
80
7f
7f
80
f9
7f
80
fd
f4
7f
80
7f
7f
80
7f
aa
f0
44
80
7f
06
80
7f
01
7f
80
7f
7f
7f
80
7f
7f
e9
80
80
80
fb
7f
4c
04
7f
7f
80
7f
e6
80
80
80
5a
80
80
80
f5
7f
8e
fb
80
80
f2
59
80
52
80
80
7f
80
80
80
f7
7f
80
eb
98
80
d5
80
2d
80
14
7f
7f
80
ef
7f
f3
7f
7f
e8
80
80
80
80
80
80
7f
d9
7f
65
80
80
f7
7f
7f
e8
f6
6e
58
d9
b9
94
7f
80
7f
48
80
6b
f8
7f
7f
f4
11
db
47
80
80
80
7f
07
7f
80
80
7f
f7
f1
7f
f9
51
4d
80
80
80
0d
7f
e3
fe
8e
80
a6
eb
74
2b
eb
80
25
7d
80
80
6b
7f
7f
f9
aa
a4
7f
ee
6d
7f
eb
ec
7f
d8
a0
86
7f
7f
ce
80
58
92
0d
f5
53
19
f3
7f
7f
7f
80
80
75
03
6e
2e
16
1e
4b
ed
80
7f
ed
7f
7f
7f
80
7f
19
58
f9
bc
61
80
80
ea
7f
7f
ef
7f
7f
7f
ab
7f
39
3e
7f
80
cb
80
b2
e7
7f
b1
f3
7f
7f
7f
80
7f
38
b2
80
45
80
80
7f
df
7f
14
f3
e6
d6
7f
80
7f
f3
80
80
63
43
86
98
ec
53
31
f8
cd
d0
00
b3
2e
44
7f
ca
80
80
80
e4
f3
7f
14
ef
08
42
c3
80
af
dd
36
7f
80
7f
ef
57
ea
84
7f
ea
80
11
bd
b3
7f
7f
80
7f
80
24
a6
80
f3
f3
7f
e9
c3
80
71
7f
7f
7f
a3
7f
19
7f
80
7f
ee
60
7f
f2
39
91
7f
7f
e9
7f
8b
7f
9a
7f
80
7f
06
18
7f
f9
80
7f
93
80
ca
7f
59
7f
80
80
80
80
e8
80
7f
fb
80
7f
06
7f
80
7f
7f
7f
80
80
80
6a
e8
80
80
fd
80
7f
80
7f
80
8a
7f
7f
7f
80
80
80
f2
80
80
05
e5
7f
fa
7f
80
7f
7f
7f
7f
80
80
4a
e8
80
7f
fd
a7
7f
e8
8e
80
7f
80
7f
7f
80
80
75
07
80
7f
fc
80
7f
f6
7f
da
07
7f
d5
ff
01
04
80
08
09
7f
ff
80
7f
80
7f
7c
e7
7f
7f
80
1c
80
80
05
7f
bb
fe
7f
80
7f
7f
7f
80
80
80
7f
7f
80
7f
fd
80
7f
02
7f
80
7f
80
7f
80
7f
7f
7f
80
7f
80
fe
7f
7f
ff
77
80
7f
4b
7f
7a
80
87
80
80
80
80
f1
02
e6
ff
a4
80
80
5b
80
80
ce
d5
80
80
80
80
f8
7f
7f
f0
7f
b2
7f
02
80
2e
7f
7f
41
80
80
7f
ec
7f
7f
f9
67
07
7f
80
d0
27
41
37
39
b1
9b
80
f3
7f
d5
f6
7f
7f
43
30
7f
7f
c4
80
7f
bb
80
80
f5
7f
fb
f5
9a
7f
7f
b7
7f
80
4d
81
7f
80
80
80
f1
6b
7f
f1
85
36
7f
80
63
c9
71
80
24
80
80
6a
ef
7f
7f
f7
80
7f
7f
ce
80
7f
71
80
7f
49
80
25
ef
80
7f
f1
80
7f
7f
fd
80
75
7f
dd
80
b2
80
1e
f3
80
1b
ee
7c
7f
7f
ce
3e
7f
35
cb
80
7f
e9
7f
e8
80
7f
f1
f6
7f
7f
0a
fb
80
d7
6d
80
f2
1a
80
e7
80
6e
f8
7f
ad
7f
80
7f
80
80
80
52
2c
80
80
ed
05
7f
eb
07
80
24
7f
7f
80
c3
2d
7f
de
80
b7
0f
7f
7f
f7
16
75
68
56
7f
80
69
7f
68
80
80
80
ff
e5
7f
ed
7f
95
04
4b
7f
80
69
7f
7f
80
80
af
ee
7f
7f
f1
c9
e0
de
d6
7f
80
1a
7f
7f
a0
80
7f
f0
7f
78
f5
7f
7f
c5
7f
7f
80
3a
f1
7f
80
7f
8e
f4
7f
7f
ea
e0
55
80
3f
4a
83
60
7f
7f
7f
fb
f0
f8
80
7f
f8
7f
d5
c6
9e
80
7f
54
7f
fc
22
80
32
ef
7f
a8
eb
80
7f
80
80
c7
7f
80
7f
7f
7f
80
7f
ee
bf
7f
01
80
80
4a
80
35
e0
a1
7f
d9
80
80
7f
f8
80
7f
02
80
7f
80
7f
80
80
80
7f
7f
80
80
7f
ef
7f
80
08
f0
7f
fb
7f
80
80
7f
7f
7f
80
80
f8
ea
80
7f
fa
dd
7f
7f
09
88
7f
7f
80
80
80
80
80
07
18
7f
08
80
5a
db
7f
e3
06
7f
d3
02
08
f8
80
06
08
7f
fc
80
7f
0b
7f
7f
a0
7f
7f
80
7f
80
80
ff
80
7f
01
d8
80
80
7f
80
80
e7
7f
80
7f
80
b9
f9
32
7f
fa
7f
7f
7f
7f
80
80
80
7f
26
80
7f
80
04
80
7f
04
80
7f
97
80
7f
aa
e1
7f
f8
80
80
46
eb
80
49
fe
80
7f
c2
80
7f
80
7f
7f
80
80
54
80
f6
da
7f
e8
80
7f
07
84
80
80
e2
80
80
80
c0
80
f9
80
7f
ef
91
7f
bd
4e
6c
43
12
7f
7f
80
7f
80
ef
80
1e
f8
80
7f
ef
4e
36
0b
79
e7
7f
a5
80
80
eb
80
7f
eb
80
7f
7f
f8
f7
4e
1b
80
7f
f7
80
80
e9
80
7f
f6
8c
7f
4e
bd
80
dc
b2
d0
7f
d1
9b
b0
f8
80
7f
ef
e3
30
7f
80
fe
e2
20
80
7f
7f
80
51
f4
80
09
e9
80
dc
80
87
97
7f
da
3a
80
37
b8
7f
f6
80
7f
ff
7f
80
22
80
80
7f
fa
80
80
0b
7d
ec
f7
80
7f
eb
7f
80
26
80
80
80
95
80
80
1c
80
7f
f0
80
7f
ea
9b
80
80
80
80
80
64
b9
7f
7f
80
32
02
80
7f
f8
b7
80
80
80
ad
80
93
80
80
31
a3
80
0e
56
7f
f3
72
80
80
69
7f
80
80
80
e9
80
80
80
fe
7f
7f
ee
40
7f
e6
7f
7f
80
11
80
7f
80
c3
7f
ef
c7
7f
f0
7f
46
37
7f
7f
80
72
80
7f
6a
80
9c
e8
f1
7f
e9
7f
7f
7f
7f
7f
80
5c
5d
00
80
80
f2
e9
80
7f
ef
59
7f
53
7f
7f
80
7f
7f
7f
c6
dc
7f
f3
7f
7f
ed
7f
d6
80
f1
7f
80
7f
7f
b5
80
81
7f
e9
7f
80
f4
7f
7f
10
80
7f
80
fa
7f
ff
7f
80
7f
ef
80
7f
f5
80
7f
80
80
7f
80
6b
7f
7f
80
80
9e
f9
80
bd
f7
8e
80
f1
7f
80
80
7f
7f
80
80
bf
80
f7
7f
7f
05
7f
7f
7f
fe
80
7f
80
7f
7f
71
80
80
fa
80
7f
00
64
7f
7f
7f
80
7f
7f
80
80
7f
80
80
fd
7f
7f
01
e6
80
7f
7f
7f
fd
7f
d3
05
f8
06
80
06
04
7f
fe
80
64
7f
80
80
80
80
7f
f3
7f
7f
7f
02
7f
7f
f7
80
80
80
7f
7f
80
80
7f
80
7f
80
34
fd
80
7f
03
7f
7f
16
7f
80
80
7f
7f
80
80
7f
80
f8
80
7f
fd
97
7f
7f
80
80
7f
8f
7f
80
80
80
80
f6
80
80
02
80
7f
7f
58
80
f8
7f
80
07
7f
80
0a
ed
80
d5
f4
80
7f
35
7f
80
80
80
80
bd
7c
c8
85
f1
80
80
f2
80
7f
7f
a4
d4
80
7f
80
a8
80
80
7f
f5
80
80
ef
a3
7f
7f
bf
d1
80
7f
80
3f
f6
80
72
f8
80
7f
f4
d2
11
a8
7f
0b
47
7f
80
7f
7f
80
80
f5
80
40
f7
21
bd
80
7f
7f
71
4b
80
7f
80
80
19
f5
80
7f
ed
6d
c7
1d
80
14
87
7f
80
7f
7f
80
80
0f
80
7f
15
7f
80
80
7f
bf
71
1f
93
7f
85
80
7f
ef
92
7f
08
7f
80
00
ce
80
3c
80
80
80
34
80
7f
f7
aa
80
f4
7f
80
d7
a4
80
80
f1
6c
80
7f
80
7f
0b
91
b2
f4
7f
80
01
10
80
80
7f
1e
80
7f
80
80
09
59
a4
f6
06
c4
7f
46
80
fd
3e
80
80
75
c1
7f
00
d5
33
e8
7e
80
7f
4c
b2
7f
7f
80
80
80
80
1d
09
7f
7f
ea
50
7f
f9
31
96
3a
7f
9a
80
80
80
80
0d
a9
7f
f6
6c
89
7c
8f
87
80
b4
80
85
80
7f
d6
f5
7f
7f
f3
7f
b9
7f
41
7f
80
c8
80
20
80
80
80
e8
2d
cb
f0
1f
80
7f
7f
7f
80
80
e9
7f
be
56
7f
ed
b1
7f
f0
6f
3a
7f
7f
7f
80
07
51
7f
80
c8
80
ee
80
31
e8
80
7f
7f
fe
31
80
80
7f
7f
ee
80
80
ec
0b
c9
f3
80
7f
7f
80
69
80
80
7f
7f
80
80
80
f7
80
7f
f9
7f
7f
61
7f
80
80
80
7f
80
ca
8c
80
f5
7f
7f
05
7f
7f
7f
80
80
7f
80
7f
7f
7f
80
7f
08
80
80
06
7f
80
7f
15
80
7f
7f
3e
80
7f
80
80
fb
80
7f
fc
06
80
7f
7f
7f
c7
7a
08
fd
f8
ff
d3
02
fd
7f
f7
80
ba
7f
7f
8b
80
7f
80
42
fe
80
7f
03
80
7f
06
80
d9
7f
7f
7f
80
ef
7f
80
7f
80
80
fa
80
7f
ff
80
7f
2d
80
6d
6b
7f
7f
80
80
80
80
09
80
ec
f8
80
7f
7f
80
80
80
80
7f
80
7f
80
80
f9
80
a2
03
b3
7f
bb
7f
80
80
88
80
7f
80
80
f6
ef
80
f2
f1
80
bf
7f
80
7f
bf
80
80
7f
7f
80
16
e9
80
7f
f7
12
80
ce
96
80
a6
80
80
7f
7f
80
7c
f9
80
7f
ed
80
80
4b
7f
e5
30
7f
80
7f
98
dc
80
e9
7f
7f
f7
7f
dc
48
3f
7f
b8
a6
80
7f
7f
80
7f
f8
7b
7f
e8
7f
80
80
7f
7f
7f
04
ef
7f
80
d3
7f
f2
7f
7f
fa
7f
80
80
80
7f
7f
7f
72
7f
2d
7f
7f
f3
7f
6c
09
7f
80
80
7f
7f
71
ca
7f
7f
35
80
7f
ef
7f
80
ea
7f
80
aa
80
80
80
80
7f
81
7c
80
7f
f4
ca
80
f8
7f
fc
7f
80
80
b4
f5
7f
80
7f
80
7b
04
f4
a2
f2
30
a1
7f
7f
80
b7
7f
7f
be
7f
80
96
0b
2e
8c
f9
d5
15
22
44
80
ae
7f
ef
93
7f
ea
7f
e3
9b
f9
ea
f4
37
39
2e
80
80
7f
c0
a4
28
80
5a
ec
ff
e0
e8
c7
a5
7f
80
32
73
7f
d1
80
e7
80
f3
ed
54
80
f1
80
26
7f
7d
80
17
d9
80
ac
80
80
7f
f2
67
c5
ee
80
80
78
1b
c4
7f
80
80
ac
80
a1
7f
ef
80
80
f9
80
13
16
84
7f
cd
5e
80
7f
d6
7f
7f
f1
7f
7f
f0
7f
93
f4
80
7f
80
db
80
7f
80
7f
7f
fa
80
80
ea
7f
01
7f
7f
77
80
80
80
7f
f1
80
7f
f7
80
80
ef
80
7f
3c
80
7f
80
80
4f
7f
7f
19
7f
eb
80
7f
fa
7f
7f
7f
80
80
80
70
5a
33
7f
61
80
fb
7f
7f
ff
3f
7f
7f
7f
80
7f
cf
7f
da
80
80
80
08
80
80
f9
7f
80
7f
93
80
7f
7f
80
80
80
26
80
09
80
fe
fd
80
80
80
01
08
fa
80
7f
f7
7f
46
80
00
06
7f
ff
80
7f
7f
7f
7f
80
7f
80
7f
fc
80
7f
09
80
7f
00
e5
80
30
f6
80
80
7f
80
80
7f
80
80
01
80
ad
08
80
7f
80
80
7f
7f
7f
7f
80
7f
80
80
04
80
80
01
80
80
7f
80
7f
7f
80
f9
80
2b
80
80
09
80
26
ee
7f
66
80
44
96
7f
80
80
7f
7f
80
80
ff
7f
26
f6
7f
80
5a
b5
7f
7f
48
80
76
0b
7f
80
f0
7f
7f
f0
1f
80
71
7f
7f
7f
7f
e1
7f
80
80
7f
e9
7f
7f
f1
57
80
ab
f8
7f
80
3e
5d
7f
7f
40
7f
f6
7f
f8
e8
7f
80
a2
7f
7f
7f
7f
7f
7f
80
df
7f
f5
7f
44
f4
7f
80
0c
7f
7f
7f
7f
7f
7f
9c
50
7f
eb
7f
7f
0c
49
80
2a
3e
80
19
7f
7f
7f
90
7f
7f
e9
7f
80
f1
e3
80
09
7f
80
d8
95
7f
7f
a4
80
7f
e8
0b
80
f9
7c
5d
7f
80
80
80
80
5e
80
7f
02
64
ec
4f
80
e8
7f
23
7f
80
80
80
3d
7f
80
7f
88
ca
e8
a1
80
ec
7f
80
a6
80
80
80
7f
e5
7f
7f
99
7f
eb
80
93
fa
7f
80
f6
7f
80
80
7f
80
80
7f
d0
4d
f5
c4
80
f0
51
80
f2
7f
80
80
2e
13
80
1e
87
45
ed
80
80
eb
16
2b
e9
7f
b5
80
7f
80
15
3a
80
50
f1
18
80
eb
2d
80
c6
80
80
cd
80
80
e1
80
08
35
ef
ca
80
ef
9f
7f
7f
7f
92
b7
15
80
90
86
97
b2
f8
ba
80
f2
7f
80
7f
7f
6c
7f
7f
80
7a
7f
80
80
f4
c0
80
f0
80
7f
80
8d
74
47
e0
80
89
80
a7
7f
f4
80
80
f9
80
80
80
80
7f
44
80
80
8f
80
7f
80
f4
80
0c
ec
80
80
80
80
f7
18
80
80
7f
46
7f
80
fd
80
7f
02
80
7f
48
80
1f
80
63
7f
c3
7f
7f
80
fa
7f
7f
f9
80
7f
80
fa
80
80
07
7f
80
80
7f
80
07
29
a6
f9
80
20
80
8b
80
80
7f
dd
80
4e
7f
80
fc
e1
35
08
80
3b
ba
8b
ff
7f
01
7f
7f
06
03
7f
f9
04
7f
ff
7f
d8
6b
7f
d5
7f
7f
2d
40
04
80
96
fa
80
7f
ff
80
7f
7f
80
80
80
7f
80
f0
7f
80
80
03
80
7f
04
80
80
7f
46
15
e9
7f
75
80
7f
7f
80
ff
6c
80
fd
80
80
03
69
7f
7c
80
7f
80
59
d1
80
04
7f
7f
f2
80
80
80
7f
7f
4f
80
7f
7f
7f
80
80
04
7f
80
ef
bd
80
24
57
7f
7f
80
80
7f
80
c2
4e
f1
7f
80
ef
7f
80
1e
7f
7f
7f
7f
80
7f
80
31
7f
ed
7f
77
f4
4b
80
6c
73
7f
1b
7f
80
7f
80
63
7f
f4
7f
07
eb
7f
80
80
7f
80
7f
7f
7f
4e
7f
7f
7f
e8
7f
7f
f8
80
80
ff
7f
80
7f
7f
7b
ff
dd
7f
7f
f6
7f
9d
07
80
2b
b9
80
7f
80
7c
7f
7f
80
7f
4d
ee
73
80
11
46
80
07
80
01
80
cf
63
7f
80
6d
35
f1
cf
80
ec
57
7f
33
80
80
80
23
f1
70
69
b0
7f
f1
80
80
e8
7f
7f
78
80
80
7f
1d
7f
62
7f
97
80
ed
f8
80
ed
7f
00
72
d8
80
3e
7f
eb
db
7f
ca
13
f3
80
80
f5
7f
80
b3
7f
80
80
7f
a4
86
7f
e9
7f
e8
80
80
ef
7f
80
80
7f
85
80
7f
a5
53
c4
87
51
ec
d9
80
e8
a5
f3
7e
05
24
80
10
3d
3d
d2
e2
80
f9
7f
80
f0
80
80
80
7f
19
33
7f
80
ef
80
80
80
ea
b2
80
ed
80
80
ed
7f
7f
7f
7f
05
80
80
80
1c
f4
f9
80
e8
80
7f
80
d1
7f
80
80
80
cd
80
9a
63
f8
7f
7f
f8
80
80
80
09
94
7f
80
80
a8
ff
7f
40
f8
1c
7f
eb
80
80
80
80
7f
5f
80
80
d1
80
7f
80
eb
66
62
ef
80
80
80
80
7f
7f
80
80
7f
93
80
80
ff
74
5f
05
7f
80
80
7f
7f
80
7f
63
80
7f
7f
7f
07
7f
2d
04
a9
7f
80
7f
45
80
7f
7f
80
7f
7f
80
08
7f
f8
05
80
7f
e7
97
80
80
7f
ea
80
7f
7f
80
03
7f
7f
05
80
5e
c1
b0
4e
7f
42
7f
7f
06
fe
7f
00
f9
80
ff
7f
6b
53
7f
ff
7f
46
7f
ff
00
80
03
08
7f
63
fd
7f
7f
80
22
80
7f
80
80
7f
7f
7f
80
fc
32
80
fe
7f
80
ba
7f
80
80
80
1e
80
7f
7f
7f
fd
80
7f
01
80
80
80
10
7f
80
54
7f
80
7f
7f
7f
fc
80
80
e9
80
80
7f
01
7f
a7
80
7f
80
76
7f
80
ec
7f
6f
f0
80
80
7f
7f
7f
7f
80
7f
7f
80
7f
80
f8
7f
2b
ef
80
80
42
7f
7f
78
e5
21
7f
8e
7f
7f
e8
50
80
ee
80
80
bd
7f
7f
97
60
80
7f
7f
7f
30
f2
53
02
f8
80
ad
85
f7
80
ec
86
e7
32
63
7f
53
ee
17
80
f1
80
3c
5e
7f
7f
c6
7f
51
7f
c1
7f
11
ee
cf
80
07
12
0e
7f
79
80
80
54
58
7f
34
7f
1d
f1
59
80
0f
6a
80
7f
80
80
6d
4e
7f
7f
cd
7f
fe
e5
80
80
ef
7f
1f
33
80
80
80
e9
7f
7f
7f
21
83
ed
bc
80
ef
7f
7f
80
80
80
a3
7f
68
0a
7f
7f
7f
e4
80
80
f7
78
7f
e8
68
80
fd
7f
80
80
7f
80
7f
f3
15
80
f9
be
23
9b
7f
80
e9
7f
80
2c
7f
72
7f
f6
69
c1
f5
21
80
8d
7f
d1
96
7f
31
a9
80
7f
53
ee
80
0c
ec
d1
da
c6
e3
08
7f
7f
7f
80
80
80
7f
0e
38
7f
e9
65
80
ba
7f
12
80
65
80
80
80
3a
7f
eb
ce
49
f0
7f
80
bd
80
7f
7f
7f
7f
80
80
80
80
ee
80
7f
f2
7f
1d
23
80
29
7f
80
80
c5
80
5b
7f
f8
80
5a
f7
7f
e9
80
7f
4b
d7
fd
80
ed
80
cd
d4
ea
80
7f
f0
7f
80
b1
b0
7f
7f
7f
80
7f
80
b5
80
f4
7f
7f
f5
7f
b1
80
80
7f
7f
80
7f
89
80
e3
7f
ed
7f
80
05
7f
80
80
80
7f
80
80
80
ec
08
7f
79
01
7f
7f
04
7f
80
80
7f
80
80
80
7f
80
7f
80
80
fc
7f
f8
06
80
7f
80
7f
80
80
7f
0b
80
7f
7f
80
ff
7f
7f
04
d7
ff
1e
7f
31
cb
6f
06
30
f9
fe
80
fe
03
df
fd
7f
7f
7f
80
04
7f
80
7a
04
7f
80
80
09
7f
7f
fa
7f
8a
80
7f
7f
7f
80
80
63
7f
7f
7f
fa
7f
80
f7
7f
80
80
7f
80
7f
80
7f
80
80
5e
7f
07
7f
f9
05
c4
80
7f
e0
7f
80
80
7f
80
03
98
80
fe
7f
80
ff
80
80
29
d3
7f
c2
d6
7f
f9
7f
7f
80
e8
7f
80
ee
80
fa
9d
7f
7f
80
f0
07
7f
80
7f
80
f3
7f
7f
ea
80
3d
7f
7f
7f
80
99
80
b6
80
7f
80
f9
57
16
f2
80
80
70
7f
7f
80
7f
80
7f
7c
13
7f
ee
24
dd
f7
80
34
14
80
7f
80
4a
80
b7
64
7f
ab
f0
2e
80
ee
80
53
7f
80
37
86
40
80
7f
d6
7f
80
f4
80
80
0d
80
f9
7f
eb
a6
b4
80
80
5b
42
7f
7f
ec
c1
80
15
5f
76
cd
7f
80
80
bc
32
69
8e
7f
51
ea
b7
80
f1
7f
3c
59
8d
80
80
25
d1
7f
7f
cb
80
ee
9a
80
f6
7f
fa
80
80
80
5d
7f
f5
60
7f
1b
80
f1
80
80
f4
80
ef
80
7f
80
b8
7f
7f
8a
85
7f
01
eb
97
80
e8
fd
93
11
7f
80
80
7f
02
82
ef
7f
e6
11
25
21
ea
f5
7f
b6
7f
6e
ec
7f
5d
80
80
7f
28
ec
7f
0b
f3
7f
80
80
7f
19
80
7f
40
80
80
71
80
f8
80
7f
f8
ff
e9
80
55
a2
7f
6c
04
80
80
64
29
ea
7f
58
eb
3e
80
80
7f
7f
7f
7f
7f
80
80
7f
80
ea
80
7f
e8
7f
80
80
b2
7f
7f
7f
80
80
80
7f
80
f2
84
f3
f8
7f
80
55
7f
80
7f
51
80
80
80
7f
aa
fa
80
2b
f9
7f
80
a9
ed
bd
20
7f
23
7f
e5
7f
80
f2
7f
80
f3
7f
80
80
a3
80
7f
80
7f
80
7f
7f
37
f6
7f
80
05
80
b7
80
01
6c
80
80
80
7f
7f
7f
80
00
7f
7f
05
7f
7f
80
7f
80
80
80
56
80
7f
7f
80
fb
7f
7f
fe
80
7f
80
80
80
80
80
1b
80
7f
7f
80
f9
7f
09
fb
fd
f8
fa
fb
04
f7
f8
02
ff
07
02
02
05
06
35
fd
7f
7f
7f
80
fc
7f
80
7f
da
7f
80
80
00
7f
7f
fe
7f
80
80
7f
80
6f
7f
80
80
7f
7f
7f
fd
f9
7f
fc
7f
80
80
80
80
7f
80
7f
80
80
80
7f
f8
2c
e6
fa
32
80
80
80
7f
80
80
7f
80
80
04
80
f8
7f
92
01
80
2c
56
7f
7f
80
80
7f
a6
80
6c
80
ea
75
80
ed
80
80
80
7f
7f
7f
80
7f
59
80
75
80
f5
ef
b7
f8
8d
46
80
7f
7f
80
80
7f
80
80
7f
80
f0
80
80
ec
80
48
6d
4d
b9
f1
a8
80
ac
d2
7f
7f
eb
3a
80
f8
80
57
16
5d
7f
80
80
80
82
d7
7f
70
f8
80
bf
ea
80
80
7f
24
72
cc
7f
80
7f
7f
7f
7f
ea
97
80
f5
80
f9
d2
d8
80
80
a8
4e
7f
7f
7f
7f
ef
7f
80
ee
80
5b
7f
80
e9
80
80
87
7f
7f
e0
fa
eb
21
80
e9
80
ef
7f
80
a7
80
13
f6
7f
7f
7f
80
f7
0e
21
f1
80
49
18
80
80
d0
7f
78
7f
7f
7f
a1
f3
cb
18
ed
80
eb
46
7f
80
80
7f
42
80
82
7f
0c
f2
69
b6
f7
80
17
80
7f
af
80
7f
80
a3
80
2b
e7
e8
3d
7f
f0
7f
62
d7
7f
7f
51
80
7f
ab
80
ec
53
f3
20
7f
ee
0e
80
5c
7f
56
7f
c1
4e
7f
80
7f
80
f9
80
e7
f0
7f
80
83
80
7d
7f
80
b7
80
80
7f
80
ea
7f
47
f9
7f
f8
9e
7f
7e
7f
7f
45
54
7f
7f
7f
eb
80
34
e8
7f
80
a2
0e
1c
7f
7f
80
41
87
7f
17
ef
ce
7f
f5
3a
80
80
7f
7f
7f
15
80
07
3f
7f
46
f3
71
73
f5
7f
7f
5a
e6
7f
04
7f
e3
7f
fa
80
a6
ef
a2
7f
07
80
ba
80
eb
80
1c
7f
80
7e
7f
80
80
eb
80
80
07
80
7f
80
80
7f
80
7f
80
f5
7f
7f
80
ff
7f
7f
08
7f
7f
80
7f
7f
80
7f
80
80
7f
80
80
03
7f
7f
ff
80
7f
80
80
7f
80
80
56
80
7f
80
80
07
7f
7f
fb
d0
7f
7f
7f
f8
05
7f
7f
3b
7f
e1
80
fb
7f
2c
09
7f
80
7f
fb
f9
7f
7f
7f
c6
7f
80
80
fb
7f
7f
05
7f
a6
34
7f
80
80
7f
ad
80
7f
7f
04
00
80
85
04
7f
80
80
80
80
7f
7f
7f
d1
80
a1
8d
f7
7f
80
f8
8f
7f
80
80
80
7f
80
7f
7f
80
7f
80
fb
c9
37
fe
12
7f
80
9c
80
7f
5a
7f
80
80
7f
80
f0
c3
80
ec
7f
4b
fb
80
7f
72
c9
7f
80
80
80
a6
f9
80
ab
ea
80
7f
53
c6
a5
48
c5
76
80
29
7f
80
f7
80
80
f0
2a
81
e9
80
7f
3c
80
6e
d4
a6
7f
80
f0
31
80
e8
80
02
a8
89
7f
80
80
af
80
7f
7f
7f
eb
3e
80
ec
81
7f
7f
80
7f
80
a7
80
5f
7f
29
84
ec
46
80
ea
80
c0
49
b8
90
80
80
00
80
24
99
7f
f6
b7
80
e9
80
ca
80
80
14
80
80
7f
7f
76
7f
80
f3
b2
80
f9
80
80
80
02
80
80
7f
7f
7f
7f
7f
80
f2
3e
41
f2
80
37
a5
42
80
7f
0c
7f
47
80
7f
80
ec
ca
85
10
98
45
24
7f
80
72
80
7f
80
80
21
7f
e8
42
39
f9
7f
e3
b0
7f
7f
6c
a4
7f
80
80
7f
51
ec
7f
7f
f3
7f
e4
e9
7f
7f
f7
38
7f
80
80
7f
fa
ef
7f
4c
f9
a5
c2
cb
53
7f
80
9a
7f
80
40
7f
80
f5
bd
7f
f8
7f
80
86
4a
11
7f
80
3f
bd
9a
7f
80
f0
7f
7f
f7
7f
f4
0d
65
54
7f
a7
80
10
7f
7f
78
f2
21
6f
f7
7f
8c
7f
7f
e7
6a
80
80
ac
6a
7f
a9
ee
7f
7f
e9
39
7f
86
e8
7f
d0
80
80
80
7f
7f
80
f4
7b
80
05
c1
ae
ef
d7
7f
8f
80
80
80
04
7f
80
f4
80
80
06
80
80
80
89
80
80
d3
10
80
7f
7f
80
fb
7f
80
05
80
c9
80
80
7f
80
7f
7f
f4
7f
7f
80
00
7f
af
09
80
7f
80
7f
6c
80
7f
80
80
7f
80
80
03
7f
fe
fe
80
80
d0
7f
7f
80
80
7f
39
7f
7f
80
fb
7f
f8
07
e1
80
0c
09
07
05
2a
7f
e0
7f
d0
80
fc
80
7f
fa
80
80
80
80
7f
7f
7f
80
80
7f
80
80
03
7f
7f
fd
80
7f
7f
7f
80
7f
7f
31
80
7f
80
80
07
80
80
00
7f
80
c9
7f
ab
7f
2a
80
7f
78
80
7f
fb
7f
7f
06
7f
7f
80
80
7f
7f
1a
7f
7f
41
33
7f
fc
95
80
fa
7f
2c
80
80
7f
50
97
80
58
80
7c
ba
ee
7f
80
06
c0
7f
80
7f
7f
7f
b1
38
80
80
ca
b6
ee
51
7f
fa
7f
01
80
b1
7f
e0
7f
7d
80
2d
7f
ea
ed
a3
60
ea
80
7f
80
7f
7f
7e
c0
cf
57
99
80
17
f0
be
1f
f8
7f
26
80
80
4d
2f
80
7f
92
7f
7f
45
ee
32
80
f2
7f
7f
80
80
f2
80
80
bf
9a
10
7f
7f
f6
bd
80
f4
f8
cb
80
f9
7f
e7
80
9b
97
09
7f
22
e5
0c
e4
15
80
d9
d7
80
74
ca
80
80
63
2d
7f
46
f3
6a
b5
f3
80
01
80
80
80
80
80
7f
80
7f
80
80
f2
7f
de
0c
80
a9
80
22
8e
a1
80
7c
79
80
7f
80
f0
f8
74
08
ae
c3
80
7f
80
7f
80
7f
f0
f4
7f
80
f0
9a
48
f7
7f
2b
80
7f
f7
7f
80
7f
80
bb
7f
2c
ee
f1
7f
f0
51
7f
a7
80
7f
42
80
80
9a
80
7f
d8
e8
80
80
f8
61
7f
80
7f
ce
2f
80
7f
ae
eb
7f
dd
e9
7f
7f
ed
27
7f
7f
7f
19
b8
80
c7
c9
80
7f
21
f9
6e
7f
f5
b5
7f
db
7f
7f
7f
80
80
30
7f
ba
06
eb
e9
80
f7
d9
e2
12
7f
6c
69
80
80
80
51
7f
7f
ee
7f
80
f9
7f
7f
07
80
7f
fb
80
80
fb
7f
7f
80
ff
3c
80
09
7f
8e
8c
d5
be
46
80
69
f0
7f
7f
80
03
96
80
ff
7f
7f
80
7f
80
7f
80
7f
80
cb
80
80
04
e7
80
05
80
7f
7f
80
80
80
80
7f
80
7f
17
80
07
7f
80
01
80
7f
80
e9
7f
80
80
7f
80
7f
7f
80
05
7f
f9
ff
80
8e
58
00
7f
80
80
7f
80
7f
7f
80
f7
7f
04
fb
08
00
05
03
fc
04
02
fe
08
01
05
fa
f9
f9
7f
05
80
80
7f
7f
7f
1d
7f
74
80
7f
80
7f
f9
7f
7f
fb
80
7f
7f
7f
80
68
80
7f
80
73
80
80
00
80
80
02
7f
7f
7f
eb
7f
7f
80
80
7f
80
7f
80
08
7f
7f
f9
7f
7f
80
74
7f
7f
57
7f
80
7f
7f
80
f9
7f
7f
fa
42
7f
80
7f
7f
12
80
47
80
80
97
47
08
7f
80
fc
7f
7f
80
7f
80
de
80
7f
80
80
80
80
f4
7f
f1
f8
7f
7f
80
6b
59
80
80
6f
a7
80
7f
ca
0b
89
77
ea
7f
7f
80
80
40
f3
80
7f
80
9e
7f
80
e8
1e
d8
f0
3f
f5
80
80
80
7f
b9
f1
06
80
7f
a1
eb
0d
a8
ec
62
d0
80
80
65
22
80
7f
a7
80
7f
9a
ec
0d
29
f1
0a
8d
80
80
7f
7f
9d
7f
80
f7
7f
a9
e6
d4
7f
f7
80
ba
80
80
7f
98
14
80
7f
7f
7f
41
f7
7f
80
ec
0e
dc
80
80
74
2b
80
80
d9
80
da
02
f0
68
a0
ec
7f
82
80
21
ca
16
80
7f
2e
2a
7f
80
f7
af
14
eb
97
7f
80
7f
3c
76
80
0e
1e
7f
48
80
e9
39
80
eb
80
42
80
7f
80
7f
80
80
d3
7f
2f
80
f0
9a
8b
ee
c5
30
80
7f
7f
7f
80
7f
9e
7f
98
80
e3
80
80
f9
7f
43
80
7f
2e
7f
80
80
53
7f
7f
80
ea
61
80
ef
c6
7f
7f
7f
7f
7f
80
7f
80
8a
7f
b1
e7
80
80
f3
7f
7f
80
96
b3
7f
80
80
80
7f
7f
80
f6
1d
80
f5
7f
63
80
80
7f
79
e0
80
80
dd
7f
7f
06
58
29
f9
80
19
ea
80
81
7f
80
80
42
7f
7f
a9
0c
54
10
ff
7f
7f
dc
80
80
7f
80
73
80
7f
7f
80
ff
a5
80
f7
80
7f
7f
7f
80
7f
80
7f
80
80
80
80
05
b9
4a
00
80
af
7f
7e
7f
7c
80
80
80
7f
80
80
fc
80
80
fe
80
bc
80
80
7f
80
80
7f
80
7f
7f
80
01
7f
02
ff
6b
80
04
7a
01
2c
fb
7f
2f
7f
b5
80
f8
ff
07
f7
7b
80
44
04
07
ff
ad
7f
d6
7f
1d
80
fb
cb
b7
01
7f
80
7f
e1
7f
45
80
7f
80
7f
eb
80
03
7f
7f
f8
7f
7f
7f
7f
ec
80
80
7f
6d
7f
7f
80
09
7f
80
fd
80
7f
7f
80
7f
10
80
ad
7f
7f
7f
7f
fc
7f
80
06
7f
80
7f
80
7f
7f
80
7f
7f
80
7f
2a
06
80
c4
fd
7f
80
07
7f
80
7f
cd
80
80
80
80
80
0a
80
80
fe
fb
7f
80
7f
bf
1f
80
7f
80
38
d1
80
16
20
80
05
7f
ad
26
80
80
70
80
c7
66
7f
bc
3c
18
80
80
fa
7f
00
80
80
9b
7f
80
bf
7f
80
7f
80
0f
84
0c
ef
9c
7f
5b
80
13
1d
12
c1
7f
d2
2a
67
ef
89
f7
f7
80
4a
7f
80
c0
7f
80
80
80
7f
21
ca
e8
7f
72
e9
80
7f
80
80
be
7a
0c
7f
7f
80
7f
7f
f6
b0
b6
ef
e4
00
b1
65
3a
7f
59
7f
7f
f8
7f
2d
f3
2c
3a
f2
e8
7f
80
a0
a4
77
80
f3
7f
80
7f
4f
f4
7f
80
f2
cd
2c
83
80
7f
7f
80
13
7f
7f
a7
8d
e7
b3
80
f7
40
7f
80
d3
7f
7f
80
cb
7f
7f
80
bb
07
80
80
ef
ac
7f
1f
ff
6d
33
80
80
02
8d
50
80
03
00
80
f3
80
7f
80
43
80
e2
80
7f
23
80
7f
3f
dd
c5
e7
f8
d7
7e
9d
a7
80
7f
80
c9
ec
7f
f4
80
e2
a8
80
ec
52
7f
9f
7f
80
7f
80
80
80
f1
27
9a
03
ff
80
e8
52
4f
7c
80
80
7f
80
80
7f
7f
89
c1
00
00
93
ed
80
7f
dd
7f
80
7f
80
80
7f
7f
80
80
0b
7f
80
fa
80
7f
26
7f
7f
4f
80
9c
70
7f
7f
7f
0b
7f
80
fb
80
7f
80
7f
ab
7f
80
7f
7f
7f
7f
80
e6
7f
7f
f9
80
7f
7f
7f
7f
21
80
7f
80
05
80
80
01
7f
7f
06
80
80
7f
15
7f
80
80
80
42
7f
7f
80
03
7f
7f
fe
80
7f
80
80
7f
80
80
7f
80
80
7f
7f
fb
7f
5d
09
80
80
fb
ba
7f
7f
04
03
80
04
91
7f
fc
7f
fe
00
74
80
38
fd
fa
00
ae
7f
df
7f
15
80
04
c4
de
fb
7f
80
7f
fe
ff
ce
b3
7f
e4
7f
25
80
fe
7f
80
09
7f
7f
7f
90
80
80
07
80
dd
7f
7f
80
00
7f
00
fb
13
df
7f
80
50
80
80
80
7f
7f
7f
80
08
fc
80
05
7f
97
b7
80
80
7f
80
7f
7f
9b
7f
80
08
80
80
00
29
7f
7f
80
79
19
80
80
80
7f
7f
80
f9
7f
68
fe
4d
80
7f
80
71
80
3f
7f
80
80
b2
00
14
98
7f
f2
80
7f
7f
80
d0
80
b5
fe
7f
7f
80
80
0f
cb
7e
ec
80
12
7f
80
3b
7f
7f
31
c1
56
6b
80
13
2b
7f
e8
80
79
7f
80
7f
90
80
7f
0f
eb
7f
80
11
de
7f
eb
1b
47
7f
80
7f
b0
7f
46
e3
66
6b
7f
fb
2c
80
f5
6d
7f
7f
f6
4b
5d
80
1a
a7
ff
3e
7f
ec
74
a9
fa
be
7f
7f
d4
7f
7f
9f
28
80
80
28
7f
e9
ef
7f
f8
32
c1
80
80
7f
4a
c6
30
80
d0
67
7f
06
be
7f
f6
80
7f
d2
01
32
7f
85
e6
4e
7f
80
3b
00
7f
7f
f3
47
1a
80
80
64
7f
16
7a
7f
64
45
54
04
b7
31
ea
12
a3
1c
a4
cc
7f
8b
80
50
7f
80
cc
06
22
63
f7
7b
7f
80
52
29
7f
a2
80
ea
2e
80
80
02
ac
7f
fa
80
d7
80
e2
b6
66
80
80
80
7f
80
80
00
80
ff
f8
80
6f
80
7f
80
5c
80
80
7f
c8
7f
7f
07
16
80
ec
5d
7f
d1
7f
80
6f
80
80
a9
7f
f5
80
04
38
53
fb
80
7f
80
7f
50
b3
80
80
7a
7f
7f
80
fe
a7
7f
02
68
80
7f
7f
7f
7f
80
80
80
82
7f
7f
f1
80
80
05
7f
3f
2b
7f
80
7f
80
80
7f
a9
80
80
f9
7f
80
f9
80
7f
2b
7f
80
80
80
7f
80
41
80
80
fa
7f
7f
06
80
80
80
7f
7f
80
80
80
7f
7f
80
7f
09
80
7f
fa
ac
80
80
82
7f
7f
80
7f
7f
7f
80
80
fb
dd
56
01
80
80
07
b6
7f
7f
03
01
80
04
80
7f
08
7f
01
fd
fe
fe
fc
00
f8
07
f8
03
02
04
fd
fd
00
04
02
06
ff
02
fd
05
09
fb
01
07
01
06
08
fd
f7
fd
80
05
7f
7f
7f
80
80
7f
80
7f
7f
7f
fc
80
fa
7f
7f
06
7f
7f
7f
32
80
7f
80
80
7f
80
7f
80
03
88
1f
ff
80
7f
7f
80
80
80
80
76
7f
bf
80
80
07
80
62
04
e5
80
7f
80
80
96
80
7f
d5
7f
80
80
00
c2
7f
fb
91
80
7f
80
7f
16
b6
7f
80
7f
80
80
f5
80
7f
f8
87
7f
7f
80
ee
bc
e6
9b
80
80
80
d7
f3
7f
98
f0
fe
94
76
80
80
80
f1
0e
7f
1c
dc
7f
f1
8d
6c
eb
29
21
80
80
80
f9
80
01
80
47
80
92
07
7f
7f
e8
78
18
7f
80
d0
7f
80
54
33
80
80
60
0d
2e
ee
eb
7f
7f
7f
51
d9
d4
e5
ea
80
80
80
80
10
7f
34
f8
fe
8c
09
c6
10
46
80
17
7f
7f
80
1e
06
e4
7f
ed
7f
7f
6b
80
7f
2d
34
80
7f
07
80
f5
08
7f
7f
f6
5f
f2
60
80
7f
7f
80
7f
7f
9e
80
7f
0c
5a
5d
e8
35
2b
b3
57
7f
09
b7
7f
6b
7f
ef
44
10
80
77
f1
da
7f
80
2a
18
55
68
7f
7f
7f
80
3b
05
80
7f
eb
63
80
eb
7f
7f
7f
16
80
7f
7f
80
28
fb
80
35
ee
7f
7f
80
87
6d
80
80
80
7f
a1
80
bc
09
55
7f
f4
27
7f
80
7f
80
c7
80
80
80
7f
f3
80
0a
80
59
f5
7f
7f
7f
7f
80
7f
80
48
95
73
7f
80
f8
80
80
fb
7f
7f
80
7f
a3
80
7d
80
7f
d1
26
7f
e8
7f
80
03
80
7f
7f
7f
7f
80
95
ac
04
7f
80
17
02
7f
80
01
80
7f
7f
7f
80
80
80
80
7f
80
80
9e
ff
7f
80
ff
c3
7f
7f
7f
80
80
7f
80
80
7f
80
80
fc
5d
80
fe
80
9c
80
7f
7f
80
7f
80
7f
7f
80
80
05
80
2e
08
7f
80
80
7f
7f
7f
ce
7f
7f
7f
80
80
f9
80
03
ff
08
f8
f8
06
07
08
01
f8
f9
f7
03
f7
08
fc
fa
07
08
ff
02
ff
f9
f8
fc
f9
f7
06
06
fb
05
08
fb
08
fe
fa
08
f9
fb
ff
03
08
ff
fa
05
04
fd
00
7f
fd
7f
80
7f
be
7f
80
7f
7f
80
06
e0
80
f9
67
7f
01
7f
7f
7f
80
7f
7f
e2
7f
7f
80
80
54
f7
7f
7f
05
80
7f
7f
80
7f
7f
7f
80
7f
ad
80
80
02
7f
7f
fc
80
80
7f
80
7f
61
7f
80
7f
80
80
c3
f8
7f
61
03
7f
7a
3a
80
80
80
72
80
80
80
80
d9
f4
c3
a2
f4
7f
80
7f
80
80
7f
7f
80
80
80
80
7f
f2
48
a4
f2
4a
c7
7f
80
df
fb
7f
80
ab
b2
53
7f
e9
7f
80
f8
74
b9
80
7f
7f
7f
80
7f
80
80
80
80
f9
7f
7f
f9
2d
80
7f
e0
7f
7f
80
8e
5c
82
80
06
f6
a3
7f
ed
5d
6b
15
6b
7f
80
80
80
7f
f9
96
80
10
f2
80
ee
e2
6f
18
7f
7f
80
80
7f
7f
80
80
4b
10
e5
80
ee
17
7f
72
76
b0
7f
80
c3
7f
80
80
51
10
7f
8f
01
3a
25
80
80
80
7f
80
3a
df
0b
80
9c
0b
7f
0d
03
9c
7f
9d
80
5a
7f
80
80
c2
80
80
7c
e8
95
bb
fe
64
7f
0f
7f
7f
1c
80
80
7f
80
02
7f
ea
80
f5
fc
30
65
80
80
7f
7f
7f
80
80
80
80
80
fc
7f
80
07
80
7f
80
6c
7f
7f
b7
80
af
80
80
7f
fa
d0
80
06
80
7f
80
7f
80
80
80
7f
7f
7f
80
fa
05
80
45
fb
80
7f
7f
7f
80
7f
19
80
7f
80
80
7b
fe
7f
c6
08
80
40
80
d8
80
70
7a
7f
09
80
80
80
08
7f
80
f7
80
66
80
7f
1a
a2
80
80
7f
04
80
dc
f8
80
80
08
7f
80
38
7f
80
80
80
80
4a
7f
80
7f
fd
80
80
fa
80
7f
80
80
80
af
7f
80
80
7f
94
a8
fc
7f
80
fc
7f
80
80
80
7f
80
80
e1
7f
7f
7f
80
01
80
fd
fc
7f
7f
80
80
fd
a8
36
80
80
7f
7f
80
fb
01
00
f7
f9
06
fb
06
fb
ff
f9
fc
05
fa
f8
fa
05
04
07
08
fa
ff
f8
03
fb
fa
fb
03
fe
fb
04
f9
09
07
05
02
06
08
01
f8
02
04
f8
ff
00
f9
01
04
fe
f8
80
fc
7f
80
7f
7f
7f
7f
7f
58
80
ff
05
7f
fd
7f
7f
06
80
80
7f
31
1a
7f
7f
80
7f
7f
e5
cd
00
7f
7f
01
80
80
7f
7f
05
80
7f
80
ea
7f
a3
80
09
7f
69
fd
7f
80
7f
7f
80
80
cf
80
80
80
80
7f
f5
7f
7f
02
7f
7f
7f
80
80
7f
1f
80
a7
d0
80
7f
f2
7f
7f
fd
7f
7f
7f
80
80
7f
1e
94
e8
54
a0
7c
e8
7f
fa
fd
3d
7f
7f
a2
c0
10
7f
80
7f
80
80
80
f2
7f
7f
08
7f
48
7f
80
80
7f
03
9f
90
40
80
80
f1
7f
99
fb
7f
7f
7f
80
80
16
80
80
7f
80
80
7f
f2
7f
7f
02
80
7f
7f
80
80
7f
7f
80
7f
32
80
7f
14
7f
7f
f7
5c
7f
7f
80
80
7f
0a
80
80
80
80
80
0f
7f
86
fb
be
7f
18
1f
80
7f
80
80
a8
80
80
7f
14
7f
7f
fc
9d
3d
7f
7f
80
9c
08
80
80
80
80
7f
0f
80
57
f8
80
7f
e5
80
80
7f
eb
80
7f
80
80
ef
f8
7f
7f
f7
97
7f
7f
7f
bc
80
7f
80
34
80
80
65
09
80
7f
ff
9b
7f
7f
80
80
4a
f1
80
7f
80
db
7f
f9
7f
69
06
80
7f
01
7f
80
7f
7f
fd
7f
80
80
7f
03
7f
7f
00
80
7f
7f
80
7f
7f
80
34
7f
80
80
7f
04
80
80
f9
80
7f
7f
7f
7f
7f
80
80
0c
7f
80
7f
fa
80
80
f7
80
80
7f
ad
7f
7f
80
80
7f
4f
80
c9
f7
80
7f
f9
7f
80
7f
80
7f
7f
80
80
7f
80
90
cc
f8
80
80
01
7f
80
7f
80
73
7f
80
80
7f
80
7f
7f
fd
80
7f
00
7f
d7
0b
80
80
7f
80
80
7f
7f
4d
80
fe
80
ad
f9
7f
7f
80
80
cf
05
7f
07
80
7f
7f
8e
fc
98
03
02
80
7f
80
80
fd
06
2e
05
80
7f
7f
80
fa
02
fd
05
06
f8
09
f7
ff
04
00
02
fc
fb
ff
f9
04
01
04
05
f8
fc
f8
08
f8
f8
f7
f8
02
fb
08
f9
03
fc
06
05
fe
04
fd
06
08
07
05
02
f9
f9
06
f8
09
07
f9
fb
01
04
fb
fc
05
fb
00
02
ff
04
05
f8
fe
04
30
04
80
34
7f
05
06
fc
7f
7f
38
80
fe
7f
04
b3
80
fe
80
80
2f
2f
75
67
80
ab
80
7f
e3
7f
f7
80
80
04
7f
80
7f
31
80
12
80
80
80
7f
bc
7f
fb
7f
80
05
7f
80
7f
7f
80
53
7f
80
80
7f
80
7f
fa
7f
80
f8
80
7f
7f
7f
7f
80
7f
7f
80
7f
80
cf
f6
60
80
00
80
7f
7f
7f
7f
80
7f
80
7f
b8
80
b0
f0
7f
80
fa
ef
7f
7f
7f
80
80
7f
4c
80
80
80
80
f7
7f
80
fe
7f
7f
7f
ae
b5
74
7f
80
80
80
80
7f
eb
7f
80
f8
8e
7f
7f
42
80
e6
9f
80
80
7f
80
7f
0e
7f
80
02
80
ee
7f
80
32
86
e5
80
7f
99
80
7f
0d
14
41
09
77
25
7f
7f
80
7f
7f
80
0e
80
80
80
17
35
80
05
74
7f
7f
7f
80
80
7f
80
80
80
6b
7f
10
7f
80
04
7f
19
7f
80
77
80
a1
80
80
80
80
7f
fa
7f
80
01
fd
ff
7f
68
7f
3d
ca
7f
8a
80
80
7f
07
7f
80
01
7f
7f
7f
7f
80
80
7f
7f
7f
80
80
7f
fd
7f
91
03
7f
7f
7f
ab
80
80
7f
7f
80
80
80
7f
03
7f
7f
fb
80
80
7f
ff
80
53
80
7f
80
80
80
80
08
e3
80
fe
80
80
7f
7f
80
7f
80
24
47
80
80
d9
ff
7f
80
05
80
80
7f
7f
80
7f
80
7f
8a
80
80
80
fb
7f
7f
06
80
80
7f
80
7f
7f
80
7f
80
21
7f
80
08
e0
36
06
80
7f
7f
7f
80
7f
80
7f
7f
80
7f
7f
fc
7f
80
fc
58
fe
7f
7f
7f
fc
7f
08
80
03
7f
7f
00
fb
7f
06
0e
7f
67
ff
f8
04
7f
13
06
06
08
80
04
02
fd
02
09
f8
fb
01
03
ff
03
03
03
01
08
fb
fc
04
fa
07
f9
ff
02
08
fa
04
03
03
fc
06
f9
04
03
01
08
08
fa
01
08
03
00
09
f8
fc
01
fe
09
f9
fe
05
ff
08
02
01
f8
03
fd
f8
f7
02
f7
ff
fa
f8
f7
07
06
fe
ff
fb
f8
07
fb
f9
09
03
08
fc
f7
fc
fd
07
f8
fe
07
01
02
fc
05
00
f9
01
07
06
04
ff
05
00
7f
fb
80
7f
2a
04
f7
05
7f
d0
fe
7f
ff
80
03
f9
7f
05
80
7f
80
7f
37
eb
7f
c1
d4
7f
f9
80
f8
f9
7f
04
80
7f
7f
80
7f
e9
7f
b3
80
7f
00
b6
02
a1
7f
06
80
7f
7f
80
7f
e4
80
e3
80
33
01
7f
f8
9a
7f
02
80
7f
7f
80
7f
c9
43
7f
80
0d
f8
7f
07
7f
80
02
bf
7f
7f
7f
7f
89
7f
7f
7f
f4
ef
7f
04
7f
7f
fa
80
7f
7f
80
68
7f
7f
80
80
80
ff
80
f4
80
32
f7
80
7f
7f
b0
9d
7f
5c
7f
7f
80
f8
7f
e9
80
80
02
80
7f
7f
80
7f
7f
c3
7f
7f
18
ba
7f
ee
7f
7f
00
80
7f
7f
7f
7f
7f
7f
7f
80
80
b2
a1
08
7f
55
fc
80
b0
7f
7f
7f
80
80
7f
80
80
80
7f
fa
7f
9f
fe
0a
7f
7f
f6
62
80
80
ea
80
ce
e3
7f
fe
7f
80
00
e6
7f
bf
7f
80
80
80
80
80
2e
ee
7f
f8
7f
7f
06
80
80
7f
7f
80
80
7f
80
80
7f
fd
80
09
7f
80
05
80
80
7f
7f
80
80
7f
3e
80
7f
fe
7f
06
7f
d2
fa
80
80
7f
7f
80
a3
7f
ea
80
7f
04
80
00
f4
03
fc
80
80
7f
7f
80
21
bf
f0
80
06
f5
80
07
e5
7f
02
df
80
48
4b
80
f7
98
09
80
12
19
80
09
e6
7f
fd
f0
80
7f
7f
80
0b
8b
04
80
08
3e
80
fc
f3
7f
f8
ce
04
7f
7f
a9
fc
ce
fd
80
06
f7
97
fd
ff
ff
02
04
06
03
02
fb
fe
01
02
06
fe
08
fb
04
f8
f7
09
07
ff
fc
fc
fe
07
f9
09
01
00
02
00
ff
f7
07
fe
fd
fe
fd
01
f8
01
ff
04
06
ff
f8
fa
fc
01
f9
fd
fe
f8
fb
06
f8
01
fc
fb
fb
f9
f9
03
fa
00
