fff9
fffd
0000
fffc
0005
0007
fff8
0006
ffff
0001
0007
fff7
0002
0007
0007
0009
0002
0005
fffe
fffa
0008
fffc
fffa
fff8
0000
fffd
0002
0000
0004
ffff
0003
0005
0008
0001
fffa
fffa
0003
fff8
fffa
0003
0004
0006
0006
fffc
0002
0008
0005
fffb
0007
0001
fff8
fff8
fff7
0000
0006
0000
0005
0006
ffff
0004
0007
0008
ffff
fffc
0003
fff7
fff8
0001
fffc
0005
0001
0001
0002
fff7
ffff
0002
0003
fff9
0006
0009
0004
0002
0005
fffa
0006
fff8
0007
0007
0004
0001
0003
0006
0003
0003
0009
fffe
fffb
fff9
0000
fffa
fffe
0001
0003
fffd
0000
0007
fff8
fffd
fffd
0002
0008
0002
0005
0001
0004
0008
fffb
0009
fffd
fffc
fffe
0006
0008
0003
fffd
fffc
0006
ffff
fff7
fffb
0002
0002
0003
ffff
ffff
fffd
0002
0000
fffd
fff7
ffff
fff8
fff9
fffa
fffb
fffc
fff7
0006
fff9
0004
0005
0009
fffd
fffd
fff9
fffa
ffff
0003
fffa
0002
0006
0006
0008
0003
0005
0007
0002
0009
fff9
0005
0001
fffc
0009
fffa
0002
fff9
0009
ffff
fff7
fff8
0002
fff9
fff8
fffd
0002
0001
0008
0000
0007
fff8
0005
0003
fffb
0050
fff9
0030
00c2
0006
fde3
0128
fffd
ffac
00e0
0205
ff8c
025c
fea6
0036
fffc
00b3
0006
0032
00c1
fff9
fdfb
013b
0004
0127
0178
0127
ff31
032e
fedb
0036
0000
00b1
0005
0006
fffb
0005
ffd3
00d6
0008
02b8
017d
fe55
ff72
0276
0076
0039
0003
007a
0005
fffb
fff9
fffd
ffcb
0051
0009
01b6
00d3
ff45
ffe4
0137
0056
0039
fff8
0000
fffc
fffe
0006
0009
fffa
0008
fffd
ffff
0004
fffb
fff9
0002
fffc
fffe
0003
ffff
fff8
0004
fffe
fffb
fffd
0002
0004
0005
fffa
0005
fffb
0006
0000
ffff
0003
fffe
fffc
fffe
ffff
0002
fff8
ffff
0002
fff8
fffd
fff7
fffb
0008
ffff
ffff
0000
fff7
fffc
0003
fffc
fffc
0008
fffd
fffb
0000
0004
fff8
0003
0000
fff7
0002
fff8
fff7
fffe
fffd
0002
0007
0008
0006
fff8
fff8
fffe
0004
fff9
0006
fff9
fffe
0003
0002
0001
0001
0001
fffc
fffd
ffff
fff8
0000
0005
fffc
fffa
0002
0001
ffff
fffb
0000
fff7
0006
0005
fff9
0005
0003
0002
ffff
0000
0008
0002
fff8
0004
0008
0007
0008
0003
0001
fffe
fff7
0000
0007
0004
ffff
fffa
fff9
0007
0002
fffa
0004
fffb
0003
0004
fffe
fffc
fffe
0005
0002
fff7
fffd
fffe
ffff
fffd
fffc
0002
0005
0009
0001
0006
0009
0000
0001
fffc
0008
0007
fff8
fffd
0006
0005
0009
0000
0001
fffd
fffe
0002
0009
fff8
0005
0009
0008
fffc
0003
0001
0002
0005
fff7
fffc
0007
fffe
fffc
0000
fffb
fffd
0008
0003
0007
0005
0004
fffc
0008
0006
0006
fff8
0006
0000
fff7
0004
fff9
fffe
0005
fffa
fffc
fff9
fffd
0006
fffb
fffb
ffff
fffd
0001
0004
fffc
0007
0002
fffe
0003
0008
fff9
fffe
0000
fff9
0007
ffff
ffff
fffc
0007
fff8
0003
fffd
0007
0009
0007
0009
fffe
fffb
fffe
fff8
0002
0001
0006
0002
0001
0005
fffc
fff7
0009
0006
0007
fff8
0001
0009
0006
0009
fff7
fffc
0003
fffa
fffd
0004
0011
fff7
002d
0090
0003
ff8c
0091
fffe
fffb
ffc8
00c3
0001
0079
fff0
0008
0007
ff57
fff9
0036
0087
0006
ff21
004a
0000
0005
feb0
0116
fff8
0232
ffda
0004
0005
fdae
fff8
ffde
ff8b
fff9
fd64
00da
0000
ff05
fd08
0378
fe91
027d
fef8
0030
fff9
fd9c
ff7e
ffc2
ff69
0001
fcf2
00f5
0001
fdf5
fd23
036f
fe43
02e5
fe81
002b
0009
fe35
0012
fff4
ffe3
0007
fef8
0215
0007
feac
ff83
0288
fe68
0264
fe8f
0017
fffc
fee3
0051
fffe
fe0f
0001
ff4c
038c
fff7
ff1c
fe1a
0163
fcff
0322
fe53
0032
ffff
00b8
ff8c
001c
fdba
ffea
ffac
0300
000f
ff84
fd83
02db
fae3
0716
fec3
fffc
fffe
00b2
ff89
000c
fdd4
ffed
ffa6
035e
000f
fed8
fd0b
0062
f7be
01cc
00c5
0044
000d
fdec
017a
ffca
fedb
ffec
fe23
026a
0015
fd0d
fe1a
00ec
fa1f
021a
fe33
0022
0011
0006
0038
fffd
003f
0007
fb68
043b
0018
fd85
ffd9
033e
ff90
fe73
00bd
000e
ffff
017e
0185
0003
012b
0012
fb1d
ff9b
0008
01cc
00c3
031a
01c8
fc66
ff56
ff86
fffa
ff78
03c6
008c
fc0f
0008
fbd6
ff68
000e
00cf
fede
0128
fd29
0173
ff34
fff2
fffc
fff9
01e1
ffae
facc
0008
fe93
003f
0011
010d
ff91
fe4e
00ea
02e5
024b
0034
0000
ffa2
01d1
ff00
fafe
0017
0061
00e8
000b
ff3e
ff5e
ff71
ff0b
03dd
0260
0025
0004
0026
fef2
ffe0
ff8f
ffff
00c9
017d
0005
fef8
feca
0425
fba0
06af
fe79
ff51
fffc
ffdb
033c
ff2e
fea6
fff8
fcfc
01e6
0007
fd88
fcb8
03ce
fbef
042a
fe99
ff3f
fffa
fe9d
030c
ff20
fca6
fffd
fdd2
0177
0004
fe7a
fb83
01ce
fae5
05c7
fe43
ff65
fffa
fe6a
0026
ffa6
fe1d
fffc
ff50
00e2
0009
fec9
fdc9
ff86
fd1f
02a1
ff2c
ff91
fffb
fdda
007b
0025
fdec
fffd
ff12
01dd
fffd
ff8a
fd1b
ffa8
fd3b
02ad
ff77
007a
0002
fdf5
0075
0001
fe72
0009
ff12
029b
0000
0004
fcc8
00b5
fe40
0238
ff6a
0045
0008
0009
fffd
fffc
0007
fffb
fffc
0008
fff8
fff9
fffc
0003
fffc
0005
0006
fffc
0001
fffc
fffe
0008
0005
0008
fff9
ffff
ffff
fff8
0001
fffd
0000
fff7
0000
0005
fff7
0001
fffe
fff9
fffe
0008
0007
0003
0007
0005
fffa
0003
ffff
0000
fffa
fff9
0008
0006
0003
fffa
0005
0003
0005
0006
fff9
fff7
fffa
0002
fffd
0003
0003
fffd
0000
fffb
0004
0006
0006
0003
0001
fffd
fffa
0002
0008
fffb
0007
0001
0009
ffff
0004
0005
fffb
fffa
fffa
fffc
0002
ffff
fffe
fff9
fffc
0007
fffe
0000
0008
0006
ffff
0017
0001
002b
0043
fff9
ffc0
007f
0009
fffc
0001
0065
fff8
0059
fff3
0001
0006
ff09
0043
fdff
00a9
0008
ff68
0100
0008
0004
fc40
026c
ff0f
fe55
fffc
0246
0006
ffa1
0091
ffe0
fff2
fffc
ff23
0256
0007
ff33
fbff
026a
fe56
fe26
ff67
02e8
0008
ffe3
0026
0018
ff9d
fff9
00df
0141
0009
fee9
0033
0115
fe8d
0335
fe51
ff1d
0008
feba
00fe
fe48
0021
0003
ff35
0138
0000
fe6a
fd3b
0367
fec4
0496
fd1c
00eb
fff8
fdbc
0046
0167
003c
fffd
fe36
0340
fffb
ff2b
fc59
060b
005d
0370
fc96
00cc
0000
fd1d
ff8e
ff94
fff9
0006
0107
0201
0002
0221
fcca
0244
fd19
0703
fc4f
00dd
fff8
fd7e
fe83
ff1d
02e9
fff0
018a
026b
0007
03f4
fc72
fdd4
012d
0685
fd5c
fefd
fff7
fce7
01a0
0086
01da
fff9
ff1a
02f1
ffe5
0000
fb51
ff4f
fe85
03e1
004a
fd67
fffa
fca2
0174
00ad
01ca
ffe9
ff19
033c
ffec
0125
fad0
ff3f
fed5
04d8
ff82
fcfe
0012
fd04
fdc2
fd89
ff10
fff5
027d
02e6
ffee
00c0
f995
ff7f
fe78
057c
ff14
fd1d
0006
fd8c
fd03
ff22
ff2e
0017
0064
fe7f
0007
008e
facf
ff0b
ff76
0089
fdd7
0060
0001
fe33
fdd8
014c
fed8
0016
fd8d
005e
000a
029b
fbb9
0210
fe8c
021e
fd97
fda3
fffa
fd63
002a
0466
fe07
0008
fe26
fe19
0016
02e8
fd41
0005
0005
0390
fc24
fc43
ffec
ff2e
fe83
00db
fa7f
0017
fe9d
00d0
000d
01da
fc5e
024c
00cc
03ac
fd25
ff0a
ffef
feb9
ff34
ffaf
fc6c
0004
ff1a
018d
003f
0102
fe80
02cb
ff01
0215
ff00
fd83
ffed
fe68
0044
01ea
fe7d
fff9
fe32
00ba
0044
0241
f9c8
0110
ff36
029e
fd3d
002f
fff3
ff77
ff76
0129
ff00
0009
ff92
0150
0049
0126
fafc
0263
fd88
0167
fd12
fd90
fff0
ff92
0038
000b
ff5f
0006
007a
0046
002d
ffb0
ffae
0353
fe92
065b
fd0d
fde7
fff7
ff3e
00ff
ff2a
00b9
0005
006b
032e
fffa
fe4b
fe89
0322
ff71
0640
fdd6
fd7b
fff0
fe87
0030
018c
ff86
0005
fffc
020b
fffc
fcff
fda0
018f
fe2e
0441
fe0f
fed9
fff8
fe47
fc9e
02d4
007b
0000
feb8
01ee
fffd
0203
fcdd
ff2b
fe00
01f2
ffff
fe49
ffff
00bb
fccb
fdb7
01dc
0009
ff68
0179
0000
030f
008a
0067
0181
ff98
00f0
ff91
fffb
0017
fd72
ffea
001c
0003
fff3
0068
0000
032c
ffe6
ff4b
ff13
ff03
013e
0037
0006
fffa
0006
fff9
0002
0001
fffa
0008
0001
0003
0009
0001
fffa
0005
fffb
0001
0008
fff9
0006
fffb
fffb
0006
fffe
0005
0005
fffc
0008
fff8
ffff
fffd
fff9
fff9
0005
0008
fffc
fffa
fff7
fffb
ffff
fff7
0002
fff7
fff9
0004
fff9
0003
fffa
fff8
fff9
fffb
0000
0001
fff8
ffff
0006
fff8
fffd
0008
0007
fff7
fffc
0004
fffe
0003
0006
0013
033a
ffe1
01f1
0005
ffae
fca7
001b
0406
001b
ff27
ffdc
fcd2
010e
ffe4
0000
fef9
0319
fe00
0271
fffe
ff60
ff67
0009
040b
fc34
ff26
fe33
fe7f
0094
0245
fff9
fed4
003f
ffe3
006a
fffa
02a9
faaa
fffd
febf
fc83
fc77
fb47
03af
fcbd
016a
0006
ff82
fd23
00b8
fff0
0009
02e8
028c
0006
002e
ffb5
ff38
00ea
01f3
ffa3
0134
0000
fe6b
fc43
ffc4
0127
fff7
00a3
0149
0001
0293
fb93
ff3f
fe46
05a2
009c
fd7c
0008
fe7c
036b
019a
00cf
0004
00cb
0087
0004
00b4
fb87
010b
fe2a
01d5
0453
fcc5
0007
fc39
fccb
0103
fe1d
fff9
0108
0370
ffef
00d6
fcb6
ff4f
fc61
019b
04e5
fffc
000d
fcb6
ff28
ffa5
feaa
ffea
005b
0182
fff1
0225
fae0
fdf2
ffa9
0525
fdf3
ffe7
0015
fcc0
feaf
01d5
fffe
fff7
ff3d
00d1
ffc1
0016
fbc5
fe32
012b
0293
0181
ff54
ffff
fc03
ff9a
ff8e
02bc
fff0
00a9
0290
ffbf
0140
fcba
0087
0144
0304
0274
fed6
0015
faa2
0052
0079
000a
ffee
ff5e
0109
ffea
0155
fa26
ff42
ff30
00a6
029b
febd
0011
f95c
fea2
ff58
0034
fff6
fc80
014b
fff6
0003
f8aa
ffd8
ff68
0208
0134
ff0a
0008
fef0
ff66
00df
ff43
fff9
004e
0255
fff7
ff46
fae8
ffc0
0122
00aa
ff70
ffdc
0016
fee1
ff2b
0233
fe52
ffee
fe54
0141
ffef
0085
faea
fe60
0113
0048
ff4b
fe50
0010
fd7a
fe72
002c
ff8f
ffed
ff65
0024
ffe8
01ab
fd56
ff81
ff6e
ff1a
ff59
fe4b
0011
fcb2
00f3
ff21
001f
fff1
fde4
0083
ffc8
ffb7
ff1b
feff
004c
0083
fe3e
0013
000c
fd42
011c
01a7
ffc1
fff4
ff2e
ffcc
fffc
fe8d
ffda
0064
0175
018a
fd24
ff32
ffed
020a
01f3
ff36
0196
fff0
fde6
ffce
0018
00a6
fdd5
0242
ffda
ffbc
fabc
ff8a
fff3
014c
ffa8
0289
0646
fffa
fda5
ffa0
0035
ff5b
fe83
0090
ff66
ff89
f8e4
012a
ffec
024d
ff5c
0156
029f
fff8
ff3c
00f8
fff8
ff97
0196
013a
ff1d
0140
f8da
010c
fff4
ff61
01c6
0009
021e
fffa
fdde
fee8
ffd0
005f
01c5
014a
fe6f
027e
fa01
0084
fffe
ff2d
0133
fda3
00c6
0003
fccf
0014
ffdb
fce3
fd76
0257
fd2f
05f3
fd0d
018f
0002
0077
fe7c
0293
0203
ffff
fd82
ffc3
ffd8
ffce
fc84
0369
fd30
0192
fe9c
0377
fff9
fd6f
ff4e
fd94
011c
fff8
0104
fd4e
fffd
01b7
ffff
fc2a
fed3
fc6b
fff3
0564
0003
ff59
fff5
0000
01cf
0003
fed1
0324
fffd
fe99
0008
fc7d
fe20
fc7b
ff43
047d
0005
0006
0008
0005
fff8
fff8
fffd
0001
0000
fff8
0005
0003
0001
fffe
fffd
0008
fffe
0009
0009
fff8
0001
fff9
fffb
0004
0009
fff8
0003
0006
0009
fffb
0007
0009
fffe
ffef
ffe8
00a4
fffe
0006
0069
ff78
0004
ffb1
0024
003a
0032
ffac
006d
001d
0008
010a
02c6
00b0
0201
fff9
009e
fd0c
0000
042d
0200
ff9d
02ad
fcbb
0121
fea9
fffb
001f
02f8
02d5
0180
fff8
02ea
fa9c
fffe
00bd
febf
0111
fcd0
fb6d
02e0
0422
fff8
ff66
00d8
032b
ffb4
fff7
012e
fcfc
0005
fd9b
fcdc
04df
fdef
020c
0277
00f9
fffc
0251
00fc
02d1
ffdb
0002
00a3
02f3
fffc
01b3
fe68
ff30
003b
0270
02aa
fda9
fff8
ffdc
fdf0
013b
0312
ffec
0145
032a
ffef
0184
fbca
fe23
ff04
0380
016c
fed9
fffb
022f
01fd
0112
0379
fff2
0182
039c
fff9
fe5b
ffe5
00bd
0032
01a1
ffc9
02ab
0000
009d
ffc6
01b9
fe93
fff2
ff75
02bb
ffec
fff5
fd46
fda5
feab
0152
020d
fd94
000a
ffc7
feeb
014f
fdce
ffed
00d6
02eb
ff96
0093
fb68
fe8f
ffbf
019e
0082
0095
0009
ff69
fd89
0136
00bc
ffef
fff8
023f
ff9a
0054
fc7b
00e8
0165
01d3
0127
fe2b
0010
ffa5
fff6
004a
01b0
ffea
0000
fff2
ff95
010d
ff47
fe92
01ed
ff30
019c
012f
fff1
00d4
ffc6
00d9
fee0
fff9
ff66
006b
ff82
ffc9
0063
ff70
0021
021b
01d9
ffac
fff0
00cd
0093
011f
01e8
fff5
0080
012a
ffb5
00da
ff80
ff41
ffb6
ff1c
009c
0036
ffeb
fe51
ff10
fff0
0026
ffef
ff9b
0072
0007
fff9
fef7
fde8
00f6
014b
00fc
003e
ffec
feaf
00d7
0113
ff6c
ffef
feec
0085
0012
0019
ff24
0000
00f8
0097
ff1d
013d
ffe9
ff79
ff6b
0113
ff3e
ffec
ff72
ff66
0028
0046
ffdc
00a9
0099
0073
00f9
ffec
000a
feb2
ffd0
0031
0001
fff2
ff1e
ffef
fff0
ffb0
fefa
0052
00c6
0116
ffc7
011e
0014
fee5
ff5e
014a
005c
fff8
ff1e
ff7d
ff7f
fff8
ffb1
015c
0167
ff67
0025
ffa2
fff9
001f
ff64
ffd8
ff73
fff7
fe94
fee2
ffc6
0070
fe8c
ffe7
ff39
012f
ff5d
ff19
fff1
0055
ff1c
ffa0
fe98
ffef
fea3
ff4b
ffce
01b4
fe6f
ff8d
0068
ffa7
fd2f
fefe
fff0
036f
fe7f
00f4
0022
fff5
0161
ff98
fffb
ffab
fed0
0145
fd27
0063
fe6b
ff55
fff9
011d
fe71
0076
fdd3
fff3
024c
fedb
fff4
0027
fdfe
0027
ff9e
0026
0052
0075
0009
03aa
01ca
fd56
ff9a
ffef
01dd
ffbb
ffe8
ff06
00bd
0263
fdb0
ffa5
faeb
0044
fff8
0346
ff86
01c2
fe3a
0003
0367
fe5e
ffce
fb15
0270
0050
fedf
ffd1
fea9
ff84
ffff
0095
ff6c
02d9
fe27
fffd
fff4
fe96
0004
fcc0
fe6c
00a2
fdf2
00c1
ff52
0168
fffa
0110
fe14
0665
ff3e
fff7
fc4e
0218
fffa
fc72
fdc6
ffc6
fd94
0335
ffc7
02b0
0001
0070
fbb9
001d
fe0b
fff8
fe51
04e2
0007
fcce
004f
001d
fd5f
00f7
ff6c
fe2e
fffd
fffc
0004
0005
0003
fff9
0005
fff8
0006
0007
0007
fffd
fffd
fff8
0002
fffa
fff9
0002
fffa
fff8
0002
fff9
0003
0005
0005
ffff
fffa
fff7
ffff
fffb
0009
0009
fffd
0047
03ad
ff80
01b3
fffb
fce3
fcfd
fffc
0579
fdc6
024d
00fc
00e1
008f
fc7d
0007
02a4
02cf
00a7
fdb6
0008
ff22
fe73
0003
021d
fc2b
f96c
fd73
fd5f
0391
fe5a
0012
ff21
001b
fff1
fc8b
fff8
0296
01e0
ffff
0190
ffc8
fd93
fc53
0165
039e
fe7d
0016
029b
01e5
047e
ffcd
fff3
0243
fdbe
fff5
02a6
ffd7
ff27
fe6b
fe3a
018b
fdb8
000a
014f
01ad
026b
fb86
ffec
0121
ff25
ffeb
0077
feda
fde8
ff4e
0075
00e5
ff8c
fff5
ffa9
008b
0188
fc7a
fff2
0085
fe5d
fff3
01fd
ff35
fecc
0089
01ed
00fe
0018
0007
feaf
fe3a
fffb
ff88
fff7
01fb
ffaa
fff7
016a
fe6f
ff6a
00ac
ffdf
00d7
0141
000f
ffec
ff9c
00c4
fec4
fff5
0041
004f
ff8b
008c
fe6e
0084
fe02
ffac
ff49
fff8
000d
01bc
ffe8
ffa3
ffc4
fff3
fe8f
00f4
ff93
0058
fdca
00ca
febf
fffd
ffa7
00aa
0005
00ce
ff30
013a
ffeb
fff4
000f
0107
ff89
0131
ff06
016f
003e
003d
010e
027a
fffe
005e
ff3f
0036
003e
fff9
0073
ff9f
ff94
fff4
ff39
ffa9
ffd3
00ab
00e0
00cd
fff8
fdab
ff8d
00b1
ff49
fff4
009f
0005
ffb0
0076
ff85
002d
001e
ffdd
ffc7
012e
fff2
fe95
003b
ff5d
feaa
fff1
0010
00de
ffa0
fff5
ffc3
ffb8
ff93
012a
0099
0072
fff6
ff37
ffbd
0084
0068
fff6
001e
0052
ffb0
ffd7
009b
ff75
ff5a
001f
00b3
fff4
fff8
000f
feef
00fe
ff0e
ffeb
fdba
0002
001d
0046
fff0
ffdc
00d7
0045
ffac
00d1
ffec
0190
001a
0001
fe9f
fff6
feab
ff6a
0003
ffab
ff9f
009d
ff55
0069
ff32
0149
fff7
0179
fe59
0065
fe74
fff2
ff1b
003c
ff81
fff3
016a
014e
012e
ffa8
0075
002d
ffee
0178
ff4c
0009
ff0c
ffea
feb6
0081
ff81
fe3f
0049
00ef
006a
fff0
006e
0092
fffb
0097
005b
0040
fde5
fff6
fe50
ff1d
ff95
0104
ffc2
00d6
0093
ffdb
ff00
008f
fff7
0090
fe7f
fed6
fd62
ffe8
fdfc
fe4b
ffc8
ff85
ff65
0051
001c
ffb7
fec9
ff78
0003
004a
fdcd
016b
fd9e
fffa
fdbb
fe13
fff6
004b
ff4d
ff3f
005b
ff8b
fddd
ff5f
0006
00ec
fdf0
0236
0068
ffee
fdaa
ff00
0002
ffee
00f0
006a
ff83
fdb1
fa48
fff9
0014
ff68
fe04
febe
00c0
fff4
00d6
fedb
0012
fde3
0085
008a
00bd
ff4c
fdb5
002f
001b
0097
fdd5
0115
ffad
0004
feda
00d8
0003
fc78
fe19
00cb
0248
02d0
ff96
04dc
fffd
ff91
01a1
004b
fca3
0004
fd6d
0422
0031
fcbf
fd53
00e3
fcb7
0298
ffd7
fdcb
0008
03a5
ffc7
fe5f
ff21
0003
fea3
0286
ffff
fcce
0006
ff3d
fd37
000a
ff68
fb82
fff8
fff8
0002
fff7
fffe
0000
fff8
0007
0001
fff7
fffd
0007
0006
ffff
fffa
0009
0002
002a
fef3
01fc
fecb
0004
fe95
00e7
0001
0199
003a
ff61
00ae
ffde
010f
ff32
0008
037d
0262
030e
01cc
fffb
ff3a
fe74
fffd
fcda
fe61
0099
ffa8
0138
0169
fd2f
fffb
0234
01ac
fdb5
0130
fff9
ff8d
015d
fff8
fce0
011d
fcbc
fde8
fbcc
038c
011a
0008
ffb5
020e
fed9
01d0
0004
0019
02ba
0004
0001
0171
0026
fba0
002d
0062
00ea
0010
0214
0391
0151
00db
fff1
008c
ff56
fff3
feb7
00ea
0105
ff8e
ff6d
ffce
01dc
000b
0111
ffbb
005b
00a2
ffea
0067
0032
fff6
0125
ff33
fec1
008d
ff9d
02b9
0049
0015
0164
00d7
ff02
0019
fff2
002c
ffea
fff3
0051
fec5
01a8
fff5
ffeb
ffea
00e1
0005
0175
ff2f
00f9
010f
ffef
006e
fdc2
ffb0
ff41
0068
0144
ffed
ff48
007f
0151
0009
01e6
ff7d
0174
0061
ffea
0018
fdd8
ff93
00f6
00be
ffe8
0140
006c
0140
001f
000b
ff73
00f4
0022
ffca
fff6
ff8e
fecd
ff8c
01b7
0006
0008
fff4
0005
013d
013d
fff0
fedb
fff3
0027
ff98
fff8
0094
0001
ff7a
0108
ffe0
0163
ff35
001f
0143
008f
ffee
fe63
005a
006d
ffd2
fff5
ffd2
febc
ffa1
0101
003c
008b
fed8
0004
0062
015b
ffef
ff9c
ffa1
00e2
ff57
ffe9
ffdc
ff6c
ffa2
0064
fe96
0102
011f
ffb2
0128
0130
fff3
feb4
ffdf
00ae
fff2
fff3
fffd
febc
ff9c
010c
ff7f
0113
0042
ffa6
007e
0111
ffec
fcb6
ff8c
003e
0059
fff7
ff25
0058
ffa4
ff68
0084
00d1
007a
0073
ffcd
0158
fff4
fdf7
ff82
007c
000b
fff1
ffd8
003b
ffe5
ffe1
007b
000c
00d8
ff4a
00ff
0004
ffec
ffbd
0015
fffd
fffd
fff2
00dd
ff13
ffc4
ff6f
0002
0076
007d
fffe
00ba
013e
fff3
fe94
0081
00f6
0064
ffee
ff42
feaa
ff7b
0094
002c
005a
01ca
ff69
008a
0109
fff9
ff2c
00fe
fff5
ff88
ffea
ffe9
fed7
ff76
fff7
ffa3
003b
0091
00a3
feee
ffcd
fff7
ffb8
0042
ffd1
fde7
ffea
ff71
fe73
ff95
00af
ffd1
01dc
0078
ff4a
fedf
ffc9
0018
0113
ff58
fffd
00b2
fff5
001f
ffd1
ffaa
feb3
0054
ffa2
0040
fe31
00e8
015a
0014
fff5
002a
ffe0
015d
ffea
007a
011a
fffb
006c
fecd
0075
ff47
ffe2
fe01
0087
001c
018b
010f
0033
00bf
ffe9
ff66
fee3
fffb
fec6
fec2
fe6b
0015
00b7
fceb
ff48
0018
ffcf
00f1
0316
005b
fff2
005b
fdff
000f
fca0
fd16
010f
fe4b
fe6e
fcf7
ffbb
0015
00ec
00bf
03c7
fc96
fff8
fd0a
006c
ffec
fa22
fd5b
0000
ff9a
01f6
fc9b
0251
0009
0334
028c
0207
00ee
fffb
018e
fe35
0047
ff50
fdc1
fea2
fe82
0040
ff6e
ff76
0002
015d
00ce
010c
00a8
fffd
00fe
ff99
fffb
ffa0
0122
ff57
fcb3
022a
fec2
feb7
0002
fffb
0003
00b5
0046
0004
0124
0009
0003
ffff
00fb
0006
ffe5
ff96
002f
ff91
0007
ff08
fd73
0460
021b
0006
01a0
0040
0000
01cc
0342
fea5
0170
fd17
00dc
fee9
0002
0376
016a
00e3
0288
0001
fff9
fd88
fffb
fedb
0371
01dc
ff7d
009b
ff6e
ff63
fff7
ff14
ffaa
fff1
0207
0002
0143
00a1
0005
ffa8
03dc
ff1b
fd6f
fa7b
024a
0415
0011
008d
fe10
fe9d
00c4
fffd
ff8d
0340
ffbf
fe0f
01d2
ffd5
fed5
008a
0349
024a
0009
033e
ff04
0017
00c3
fff7
fe05
fef1
ffac
fddf
01df
fe90
ff22
003b
0068
0024
0006
0083
ff98
ffe6
018a
fff4
006a
fec0
ffba
0066
018b
fd95
ffe7
ffbf
017e
ffee
0013
013a
004f
0015
ff25
ffea
003c
ffa3
ffa2
00d8
00e4
fe50
ff71
ffe3
fefc
0146
0016
0127
ffae
ffb3
0173
fff6
ff46
ffaa
ffbb
00e0
ff2e
feec
feb1
00cd
ffae
01ed
0015
008d
003e
ffec
00f3
fff8
0025
0033
ffb0
006f
0015
ff60
fff0
0008
001b
011f
0009
00df
001c
ffd0
ff1b
fff4
fffb
fef3
ffa1
0051
00a5
0067
ffe0
0091
ff86
00c9
fff9
0114
00cb
ffa8
002a
fff9
ffe1
0120
ff96
0132
ff55
0059
ffbb
ff56
0017
00b1
fffc
ffb9
00dc
005e
0053
ffed
000c
ff34
ffc3
00b4
ff84
0024
ffc7
ff71
005f
00c1
0016
ffab
002e
0048
00a8
ffed
0093
0020
ffce
0191
ff8c
0091
ffcf
ff9f
0170
01ba
001e
fd87
fff1
011a
0114
ffe9
ff40
003d
ffb4
0097
fee8
00e1
ff85
ff5c
00b5
002c
0003
fd4a
004f
0051
00a6
fff9
ffbb
ff72
ff9c
ff9c
fec0
0079
00bc
0132
0058
0121
fff7
fe8e
ffe0
00a7
00c6
fff6
0022
ff23
ff8e
0066
ffbf
fff3
008a
ff3b
0048
0027
fff0
ffab
0001
0137
006b
ffee
0039
ff4f
ff79
0097
ff8a
0002
004f
ff31
ff5e
0087
fff7
015e
ffd8
0024
ffa9
ffeb
ffa5
ffb3
ff73
ffd1
ff9b
00df
0046
0011
ff1b
0173
fff3
00c8
ffde
00d7
007c
ffed
fff3
0021
ff84
ff93
007a
ffd1
0182
ff9f
fee8
006e
fff1
0039
0061
0136
00ca
fff4
ffd4
ff2f
ffd4
00d9
005a
ffe1
011a
ff4e
fed1
0000
0020
001b
ffa5
002a
0003
ffed
ffe5
ffb0
ffb7
0006
ffd5
ffa1
00eb
00e8
ff58
00eb
0015
00ca
007f
001d
fee6
ffeb
fff2
0001
ffe6
0182
0015
ffa1
ffdb
00e0
fd5e
0048
0012
01ab
0132
ffde
0130
fff8
0061
fdcd
000d
ff15
fddc
ff3f
0006
0059
ff4e
ff82
000d
0106
feee
01b5
0232
0017
0032
ff57
0020
ffbf
fbd1
feb1
001c
fff2
fe9a
0110
000e
0285
ff9b
046c
00e4
0013
0027
004f
ffe3
fe40
fbdf
fe8a
fefb
005a
fead
039d
000e
03f7
01b3
0081
00ca
0010
ffa7
0184
0037
ff8e
0056
01ab
fbb4
ffe2
fd78
ff94
fffd
fdd7
ff88
011f
006c
0006
ffa1
029d
0005
ffa5
000d
ff73
fc61
0103
fe40
0140
0002
fffe
0123
00fe
fea6
fffa
fd38
04ad
fff9
fffd
fa96
fe49
fb59
010f
0005
0209
fffd
fed9
fd7c
ff7e
011e
fffa
03d4
fefb
fff8
031c
0529
ff63
fe91
fd64
fcd9
fe37
0001
030e
01b1
ff59
fdf0
ffff
002b
ffc8
fffa
ff8b
03f7
0152
fc1b
0146
fcd8
015e
0006
0248
ff7b
fe98
00b1
0004
00da
0183
0001
ff23
00d6
fdcd
fc64
ffa9
02ac
0159
fffa
009f
fe4e
ffbf
ff8f
fff2
0016
feb7
ffc0
0074
0054
fe6d
fe79
0081
0439
016a
ffeb
0112
fea5
006f
02dc
fff8
ff4f
002d
ffa9
0014
ff9d
fe85
feb0
ff64
ffd0
00a9
ffed
00b1
0184
0093
006e
ffee
00b5
0037
ffaa
fdac
0038
fec0
ff43
010c
ff77
00a7
ffec
00fd
00f1
ffa5
005c
fff3
00fe
fedb
ff96
006c
0129
fd84
ffab
ff97
0116
00dc
0007
004a
ff29
fff5
01d0
ffeb
00c7
fe72
ffad
0030
00fb
ff3a
fee5
ff2f
0026
0143
000d
0159
ff66
00b7
0082
fff2
00d4
fff6
ffa1
ffb9
ffd3
ff06
002f
ffbb
ffa4
00c9
fff2
01ac
ff5e
00fe
010f
ffe9
007d
feb6
ffac
00e4
00a4
fe05
0040
ffe8
00a3
01c4
fff0
007d
00b3
00ff
0043
fff3
0065
ff78
ffc1
00e9
ffed
ffe7
ffb3
004b
ff1a
0159
fff2
005b
00c2
00d9
ff6a
fff4
0007
008c
0017
0067
fff1
ff87
ffb9
ffd3
fff3
0137
000a
fefe
012d
00ab
ffc9
ffee
0049
ffe7
002b
007a
0009
006a
ff43
00bb
0166
0108
ffff
fdca
0035
000a
004d
fff4
ffeb
ffa2
002d
01f9
004d
0088
ff77
ffa5
0073
0175
fff7
fddb
0054
00d7
00b7
fff7
003f
001a
ffe0
0115
0044
ffde
fed5
ff1d
0129
009b
ffef
ffad
0055
0078
ffe6
ffeb
0036
003d
ffd5
002b
ffc5
00a0
007b
fee2
01c4
0239
fff3
0118
00a1
0007
fff1
ffec
ff3d
ffdf
ffff
008f
fff0
ffae
015b
ff9b
0109
0100
fff6
01a0
0132
00ec
00b7
fff7
0044
ff5d
ffbd
007e
0057
ff85
00da
ff14
0116
013c
ffed
0045
0159
ffef
ff2e
fff3
ff90
ff96
ff97
0068
0064
ffaf
00d1
ffc8
0010
00f1
fff9
0050
002d
0070
ff95
fff5
ff7a
00a6
ff97
00a8
000c
ff73
ffbc
ff72
fe11
0139
0017
0019
ffef
0035
ff4a
ffe8
0084
008a
ff97
ffa5
fffd
00cd
008a
fff1
fcee
ffd7
0014
01fe
0053
ff6f
fe46
ffe8
feaf
ffc2
ffbe
0093
0004
0083
0017
ff8d
ff38
015d
0002
0243
0020
ffd6
0008
000f
fec3
001f
002b
006c
ffd1
fe22
fe70
ff24
fe08
0089
ffeb
0343
025b
016e
01b6
0018
ff13
ffe1
000b
fb9e
fd65
ff70
ff61
ff21
fb91
00c0
fff0
046b
0259
ff81
ffd0
0010
006e
fe77
ffe9
fcce
fbb0
fe0b
003a
00e9
0013
000d
fffb
00e8
013b
ff54
002f
0015
006e
ffb8
0018
fd7e
fd39
00df
fe8a
0062
fe10
ff70
0000
fde4
0178
0082
fe32
0001
ff0a
fcf9
0004
0049
fd5e
fe98
ffee
0336
fef4
02b4
0000
0001
0155
00b0
ff1e
0005
034d
ff19
fffe
0004
028f
0008
ffce
ffaa
ffad
ff76
0008
ff6d
0145
fffb
fecb
0002
0179
fdf9
fffb
ffdd
0270
ff4a
0151
fdf4
ff22
01c0
0007
040b
040b
ffd7
005c
0007
ff9b
000c
0008
fd70
0297
ff16
ffee
011f
ff0b
0192
fffc
0164
004a
fe77
fe7c
fffd
0196
00f8
ffb8
ff5d
00a1
fe7e
fe90
014a
01a0
011f
fff9
00ac
fe51
0199
ff3a
ffef
00af
01b6
ffcf
0170
012d
fed2
ff17
ff3c
01f5
0099
ffe9
ffe5
ffb0
ff65
00b9
fff0
ffad
ff9c
ffa3
0120
ffff
fd2d
fe75
ffae
0126
02b2
fff3
ff39
0204
012e
ff3f
fff6
0121
fe05
ff9c
fe8b
0130
ff6c
ff3f
ffad
0113
01e3
fff4
ffd4
ff81
0023
fff0
fff3
0066
0032
ff86
ff64
ff8a
ffae
fedd
0054
0085
01c3
fff8
ffc4
ff30
0022
ffdf
fff1
00b0
ff36
ff82
fff8
0011
fea1
ff67
0108
0005
0081
fff1
0009
014f
002e
ff87
fff6
0037
ff80
ff9b
ffa5
015b
ffa5
ffb4
0073
feeb
00d7
0001
ffd1
ffe1
ff4a
00a5
ffe9
0008
0044
ffeb
0089
00e8
001d
0070
0018
ff2b
016e
fffd
0137
ffc8
ffd5
00dc
ffec
0047
feec
000f
0046
0050
fff9
ffde
0039
fe4c
00e5
fff2
0123
ffcf
ffc2
0005
ffef
0115
ffb8
004b
00e2
0199
ff55
ffb0
fed2
ff96
014e
fffc
0036
00bb
0004
00ac
fff8
ff89
ffc5
0047
ff09
013b
fffa
00ed
003e
00a3
01e4
fff7
fce7
0069
fff3
0148
fff4
005a
ff01
0003
ff57
008d
ff92
fe93
ffe5
016e
00e6
fff2
fd24
0048
ff05
004c
ffe8
0004
ff90
fff6
006d
feba
fffc
ff4f
fe42
03ac
004b
fffb
0130
0023
fed4
ff57
ffe8
0011
ff57
0001
0038
ff4c
ff44
ffee
ff24
03af
ffe2
fff8
00ab
016d
fed9
0021
fff2
00fe
ff3d
0017
ffb4
00ab
ff53
020a
feec
02b5
0171
ffee
005a
0282
fe9d
0030
fff2
000b
ffdc
ffec
0060
0014
ff1b
0224
ff29
0123
00c2
fff3
0082
0120
feba
0016
fff7
0099
004f
ffb4
ffb8
000f
ff71
023f
ff95
0036
00b3
ffe7
0118
0129
ffe0
ff5e
fff7
00e7
0173
ffab
ffef
00a0
ff20
0180
0068
fe67
0081
0000
015f
01fa
ffa1
ff7d
fff3
0047
0019
ff88
fed3
0036
fe89
ffe9
0094
fcf1
ff73
fffc
0174
00d2
0102
fff9
ffec
ffe4
fea5
ffb1
0144
00f4
fdee
ffe6
ff8a
fde1
ffb5
fff4
00eb
ff65
0012
ffa8
0016
fe3d
ff0f
0021
00bf
0035
fe20
ff81
00fe
fdc3
00fe
fff2
00f7
0422
fead
ff83
000f
ff2c
0114
000a
fbc8
007d
fd3c
fe44
0044
fc16
ff1d
ffe9
0130
0448
ff2d
fcd1
0017
fd30
fd38
ffe4
fce4
fd87
fd97
0051
026c
fee6
01d3
fff9
ff55
00ce
018f
024d
0006
fddf
fd7e
001a
fd6a
0213
0175
0208
0273
004a
024d
fff9
ff75
fb2f
0102
03cd
0006
0243
fdb0
fffa
01e2
0498
ffad
0058
fc9b
0088
040a
0000
fffc
01a0
000f
ff13
0005
0358
ff1e
0005
0008
02c4
fffc
0005
ffac
ffa5
ff9f
0005
ff66
023f
fefa
fedc
fff9
0032
ff42
0005
ff5b
0089
ff11
02d8
ff0c
ff02
0299
0003
008f
01f3
ffa6
fcbf
fffa
0273
fe9d
fff9
fdc1
00b4
fc2b
0226
fe77
01bf
fed7
fff7
003d
001a
014a
fc1d
0007
0033
03eb
ffa0
ff1b
01ee
ff68
febe
007f
0142
0056
fffa
009e
ff45
01bd
0025
fff8
0137
fed9
ff86
0039
fe29
fe3f
00d2
0011
003b
01a8
fff9
ffc3
ffc8
ff61
0265
ffeb
0082
01ae
ff6a
00ee
0107
0022
0068
ffcd
013d
00f4
ffec
fea2
fec3
ffd5
ff47
fff0
0018
ff7a
ffa7
0031
0080
0114
ff45
00f8
0058
00e5
ffea
ff6f
ffd7
0026
003a
ffee
0118
ffd4
ff99
0153
006e
ff4c
ff69
0032
ff0b
ffea
ffef
0036
ff46
01a2
ff4f
ffea
009e
ff96
ffb8
01c7
ffde
fec0
ffee
0012
fd32
01c4
fffb
ffdb
fe86
0065
ffe8
ffef
0100
007b
0002
0051
010b
0032
fede
0076
fd89
015b
fff2
0013
0011
ff47
ffed
fff5
000d
0013
003a
00b4
00a2
ffca
fe5f
006c
ff7c
00b9
ffff
0145
0051
0024
0063
ffee
ff4b
ff72
0014
fde9
0165
fea6
feef
005c
ff59
00d3
fff7
00f5
ffa9
ff04
008e
000d
0002
ff50
001f
fd1f
0152
ffb4
fed4
0085
ff85
00ea
fff5
feee
fff0
0048
0173
000c
febb
ffe1
ffc1
fcf8
00bb
fecf
fe76
ff87
010b
fffe
fff4
f930
ff76
0091
019e
ffe8
ff2c
ffa3
ffbb
fd9b
ffca
fdec
fcb4
fe99
012c
0037
fff5
fec3
ffa1
fecd
010c
fff1
0005
ff98
ffbf
febc
ffa1
fe25
fd70
fdfe
0149
ff63
fff9
000b
ffbc
ff8c
ffd2
fff4
009e
006e
ffc5
ffba
ff9e
fe1b
ffd8
fdea
02bf
0072
fff8
008f
fee0
ff70
fec9
ffee
0038
0090
ffae
ffbd
fff1
fe39
01ab
ffef
01b8
ff80
fff9
002d
ffc4
fee7
fe56
ffe8
0187
0014
ff9a
ff57
ff8e
fe5e
02c1
0030
0069
0072
fffe
001e
0139
fe6c
ff7b
fff4
014d
ff11
ffa6
ff71
0022
fd58
0280
ff75
001a
0000
ffed
ff59
0291
ff13
fede
ffec
0169
008e
ffbf
ff00
ffa0
fe1b
0253
0058
fead
00c6
ffe6
0053
02a5
fe60
0075
fff4
01c2
00d7
ffbe
ffc2
fff6
fd41
00f8
ff98
fd48
0109
ffe8
ffcc
012c
fde9
ffba
fff7
0193
0090
ffc0
fe37
0093
fd96
025c
ff64
fd76
0166
fff1
fc60
0170
ff4e
ff75
0016
001a
ffc4
002d
fef7
0015
fdab
0069
007e
00e6
015a
fff2
ff86
02ee
fd26
fff0
000c
009b
0115
0024
fde4
ff94
fd12
fe3d
00c8
fd1b
ffdd
fff8
002b
034f
0121
01a8
000b
01f0
ffe5
0032
ff44
00d0
ff4c
004e
fead
01b9
fd65
fff7
fe74
018e
01cc
fe9b
0005
fcb8
ff21
ffff
fe8e
0227
0162
ffbf
010c
001a
03e0
0004
00ea
fdeb
00bc
013a
0005
00d6
fdc1
fffd
01c7
0419
ff91
0020
fd99
0222
03c5
0002
0007
03b4
0132
ff3b
ffff
0538
ff29
ffff
0012
0364
fff8
0143
fdc5
0048
fe80
0002
fc13
032b
ff7b
feed
0004
fde9
0637
fff8
0245
00ba
f948
fa67
028c
fee4
0582
0000
fdba
fef3
fde0
019a
0007
03a2
fbd6
0002
fed9
0349
0066
01cd
ff34
ffa5
fe2e
ffff
ffda
fe30
0035
fe9b
fffa
ffed
0202
ff91
0095
0356
fe3d
ff25
ff85
01c4
0044
0000
ff33
0114
02a8
0048
fff9
006f
fd1f
ff84
fec1
ffb4
fc9b
004d
003f
001d
0007
fff1
ff38
00d0
ff0f
0191
ffe9
0057
fdef
ff93
ff3e
018f
0020
ffc3
00d3
ffcc
ff10
fff5
ff95
ffd1
ff5e
fda4
fff2
fff8
ffab
ffd0
ff94
019c
013a
001c
0039
fe63
ff30
fff1
fefa
fffe
ff7a
011d
ffec
0069
fef0
fff1
fe6b
00a3
011c
ff37
0183
fdb1
000d
fff2
0009
ff4f
fecf
0113
ffec
0007
ffe2
0027
0083
0151
0093
ffea
00cd
ffe5
ffee
fff7
ffd5
feb1
fe3b
ffcf
fff7
015b
fea7
0032
fd0c
00e2
00bd
fe84
0152
ff47
ff7f
fffe
006f
ff45
ff6d
005c
ffe8
00ff
fe68
ffe3
fb0b
0126
0047
ff8e
0015
ffda
ffdc
ffe8
0087
ffe8
ff95
ff1b
000e
0163
ffa5
ffd0
fc30
016c
ffc9
ff65
ff92
ffc8
0153
fff5
012c
fe3b
00f0
ffe8
0011
00ac
ff92
ffce
fbc8
ffd1
0017
fe7b
ff99
00cb
ff3b
0004
fd2f
ff24
0092
ffed
fff7
ff0e
ff02
ff8e
fcd0
fff0
ff18
ff53
fe9e
0111
ff98
ffe6
faa3
ffee
0146
0106
fff2
ffaf
fed2
ff90
feae
fd70
006a
ff6d
00f6
0176
fea6
fffa
fe94
feec
013d
0071
fff8
0009
fe95
ffae
ff12
feef
ff06
ffd6
ff5d
018a
fea7
fff3
fe39
ff26
00bd
0014
fff9
00fd
003b
ff8a
ff0a
ff04
ff8f
0015
ffe2
ffe9
ff7f
ffeb
ff47
ff58
014c
005a
ffeb
0252
0042
ff62
ff26
ffc4
013e
010b
ff31
ff4c
004d
fff5
0015
ffdc
01c8
fe98
ffee
01b3
ffa9
ff4f
ffbd
fff4
febc
01b9
ffbe
fec2
0044
ffea
fed8
ff71
0058
fef8
fff4
01a5
0108
ff7d
ffbe
ffe6
ff12
0202
0162
fe4b
0038
fff6
fe5d
0004
ffb4
fec4
fff3
02c2
ff92
ffa9
ffdb
00fd
ff8b
023e
004d
fe28
010e
fff3
fddc
0100
ff30
fffa
ffee
0161
004f
0005
ff44
ff05
ffc2
01bb
010a
fdb6
0102
ffee
fea1
0198
fd87
ffd7
fff8
02a4
fffb
000c
ff13
ffc3
ff27
02d1
013b
ffb3
0143
ffef
fcc1
02d0
fd8d
ff55
fff4
011d
00b6
ffec
00d3
fe9d
fe10
ffe5
0086
00f4
014c
fff1
fc8e
0254
fda0
000e
0010
0001
fda3
005b
0107
fcaa
fd5d
ff30
0024
ffdf
00b1
0009
00a8
02bd
009e
ff5d
0005
ffa2
00a9
0018
0101
fe8f
fd0b
ffe4
012c
0243
ffc6
fff8
00c8
048a
01d6
f979
fffc
fd73
f9f2
0009
fb2f
ff59
00a2
ff4c
0182
ff7b
0455
0000
ffd2
00ab
0211
fddb
0006
ffb7
fdda
0000
ff57
ff86
0014
feee
020e
0132
fed0
0008
fffd
0305
011e
0009
0004
0373
0000
0003
001e
0252
0092
0172
fd37
ffd9
fea6
0001
0116
0295
0024
ff85
0007
0342
024b
0007
ff83
05be
fd29
fc3a
fe61
fe9b
0404
fff8
ffce
ff84
fedd
ffbe
0006
04b3
fd23
fffe
ff24
04ef
ffd7
0319
ffda
005e
0006
fffc
0148
00b0
ff1c
fe55
0005
0097
fb31
ff9e
ffdc
fcbc
fd65
ffcf
ff98
0186
fd53
ffeb
fd88
ffab
ff8b
ff0b
ffe9
ffe5
fd9b
ffd4
fbf3
0155
fe7d
00fa
01af
fce5
029d
ffea
fe18
fef7
ff45
fd6e
0008
ffbc
ff81
001a
0015
011c
ffef
ff0f
00ab
fe9e
fe55
ffeb
ff71
fddc
fe56
fdda
0017
ffad
ff98
002d
fafc
0081
0175
0086
ff98
fe11
0092
fff9
0069
ffce
ff8e
00c2
fff9
001a
feec
0001
f6da
0107
ff56
feb0
0045
ff61
002b
fffe
fff7
ff8a
0008
0063
ffee
0053
fef1
ffe3
f802
00fd
0031
ff68
fef3
ff77
ffcb
ffef
ff8d
002b
ff4a
ffc9
fff3
ffbf
0151
ffe0
f8ae
ff7c
0040
ff06
ff66
0061
ff72
fff6
011d
ff25
009d
0039
fff4
ff89
0003
fffa
fb4f
ff61
0004
0009
ff15
ff4f
ff12
ffec
01d4
ff8b
0041
ff6e
0018
0124
00c5
ffcd
fca6
fdc7
0035
ff2e
ffa1
ffbb
fef2
0011
027b
ff88
006b
00a4
fff1
ff1b
00f4
ffc2
fe5b
fdb7
fee0
ff9a
fedd
0049
fed9
0001
00c8
0064
00df
0102
fff4
ff06
0059
ffe3
ff83
fdab
febe
ff30
0087
003c
ffe7
ffee
fca8
0095
015f
00bb
ffe8
ffd6
ffe9
ff84
ff23
fde0
004b
0025
0220
015c
ff68
fff1
003a
0039
00e9
0135
fff3
017c
fe6d
ff8c
000e
0099
ff1b
00db
000b
ffda
ff21
ffef
ff68
0097
ffe9
0129
ffeb
00b8
ff0e
ff68
ff53
ff7e
ff55
00f6
0056
ff6b
006b
fff0
ff6c
ff6a
ff88
ffb1
ffec
0097
ffc4
ff65
ffb0
00d9
007e
013f
007c
fff9
00aa
fff1
ff8d
fdf6
0138
00ce
fff5
00eb
ffdc
ff53
ff71
003b
ffb9
ff94
ffe5
feeb
0043
fff2
ff23
fc9b
ff8b
fee4
fff9
00e5
ff7f
ff69
ff3b
00d5
0022
00c1
ffef
fe99
0086
fff6
0025
fe8b
ffe3
fea2
fff4
00e7
003c
ff9b
ffe6
ff82
fff1
01ea
fff2
fdb4
003c
fff7
ffd6
fd80
ffaa
fed2
ffe8
00ea
0007
0002
ff04
ff56
ff8a
00d6
0197
ffe6
ffbb
ffec
ffe3
febd
fdc9
fe46
fff7
0373
00ab
0016
fee4
fe65
fde2
0186
0070
ffa4
ffda
fffa
fdac
ffdd
fddf
ffa5
ffe9
00d9
ff33
000c
ff15
fb72
0199
0108
00b2
023f
0165
fff5
0053
0165
fa18
ff4c
0013
fe47
ff94
000d
ffd1
f8f2
003f
fe6b
0124
051d
009a
fff7
fd9d
029b
fee9
0083
0007
ffa7
00bb
003c
025e
0140
fcf1
0030
ffd4
03c2
fe52
fffd
ffdd
075a
0083
faf1
0004
ff86
fdfd
0004
0044
0539
f93d
00a1
fe98
01d0
fdce
fffa
0035
fe5a
01cc
fe66
0006
0025
fd39
fff9
fdd2
014c
fea9
ff5e
00a3
01a7
fda9
0009
0021
02a5
0067
fd4d
fffc
fd74
fffc
0009
fe89
ff61
ffde
0001
02a7
ff76
fff7
fff9
00f4
01bb
fffe
feff
fffb
0072
0240
0007
fe47
0127
ff45
fea0
009b
ff43
02a1
0006
00f9
0003
fe7a
ff22
fff8
060f
00c6
fffe
0076
04f1
fe81
fed2
fe03
ffb5
0022
ffff
0067
026c
ff94
fd81
fffa
fdce
fad0
fffb
fdb3
fc9d
ffbe
012e
0000
003c
ff2b
ffea
fe91
fc15
ffef
fd46
fff3
00b3
fe26
ffe5
f6e7
004e
feb2
01c4
feee
fdf0
0027
ffe9
0060
ff1e
0090
fe0d
fff8
00d1
ffdf
0051
f698
ff72
ffcd
004c
ff02
fed6
ff9c
ffee
00ac
ff1c
0017
00f9
fff5
005c
012f
001e
f9fb
feb4
ff46
ffb1
fe8d
0138
feed
fffc
0062
fff6
ff76
0131
fff0
0021
ff7e
ffc7
fa12
ff1a
0078
fee2
fee4
00e4
ffe8
fff4
00d7
ffb6
ffc2
0022
fff0
0001
0024
ffb1
fc02
ff3e
0037
002f
ff8a
005c
fef6
fff2
0090
fff2
ff8b
ffee
ffef
00dd
ff99
fff0
ff88
fd45
ffdd
ff88
001d
ff92
ff92
fff5
01d9
002b
0007
009d
fffa
0068
00d8
ffe1
0032
fe99
00a4
ff97
fec0
ff57
feb1
fffa
029b
000e
0012
ffcd
fff9
0048
ffd2
ffe3
ff96
fde2
002b
000e
0018
ff7b
0019
0016
0269
013f
00e8
01a1
fff4
0021
ffef
fffe
00bb
fd0d
fefe
ff84
00d1
0038
0065
0005
fefe
012c
01ca
0116
fff1
0055
fff9
fff6
0075
fd74
000f
002d
01dc
00e9
0059
fff7
fef0
0193
00c7
0151
fff5
ffd0
ff4b
ffb7
004c
ff3a
001e
0094
00f6
00d5
ff99
0000
005f
009d
0037
018f
fff8
0191
ffd9
ffc1
ff71
ffa3
0034
ffdf
0257
ffa0
0007
fffa
ff5c
ffdd
004b
0134
ffeb
00f4
ff60
ffa0
ff80
00b7
007b
ffd8
00c9
00eb
ff19
fff6
0016
006b
004b
00e1
ffe9
ffeb
ff42
ff6f
ffaf
0123
012a
0025
0088
0000
ffca
fff8
000a
ff0e
000c
019f
fff8
ffa4
ff0e
ff5f
ffa1
ff6f
0151
0147
ffff
ff56
fffb
fff0
ffea
fd85
ffb4
0003
fff5
ffd3
ff56
ff48
ff44
fdeb
01a6
0098
007c
ff99
007e
ffef
0071
fbca
ff0b
003c
ffec
ffaa
fe48
ff83
ff2b
ff1a
01d5
00df
0115
ffb0
013c
ffed
00c9
fb59
ff61
fffb
fff3
0154
ffd2
fff2
ff88
000d
00a8
0113
004e
ff52
ffd9
fff4
00b9
fe3a
fdc8
fefb
fff8
00ea
00bc
fff7
ff1e
fe47
ff8b
00db
0066
fee6
0068
fff0
ffc1
fe8f
007a
0042
0017
ff19
022f
0039
ff2e
fe24
0098
fe96
0193
ff16
fe92
ffee
0105
0091
fe6b
feb7
0016
ff33
022c
004a
ff92
00db
ff85
fdc6
01d1
fe47
fe92
0007
fce5
03d2
006d
000a
fffc
009a
feec
002f
01c3
0311
fe7d
0006
fe7c
016a
fdd4
0004
fdad
0495
fe84
fd6f
0009
fe49
fdfe
0006
00fc
0516
fa52
01a9
0088
0044
0052
0004
00ce
00c9
fcca
fe19
0001
fbd9
fe0c
fff7
ff3f
04ec
fe8e
ff33
02be
ff15
fff7
fffd
0134
02b2
0278
fff9
fffc
fd33
01a7
0001
fffe
fec4
028b
fffe
00d6
ff41
00bc
fffe
010a
0103
025d
ffce
fffa
ffdf
ff95
fff9
fd68
0322
0065
0091
ff96
0070
00e4
0001
fee3
00e7
fda5
0030
0000
04b7
fd86
fff9
ffb5
05d0
fafe
fb54
fe23
fe09
047e
0002
0136
0220
ffa3
fe91
fff0
ff3c
fd39
ffff
fe40
fc84
0258
0084
012c
015e
0135
fffa
ff4a
fa4b
fcd4
fdb0
fff5
febb
ffcf
ffd5
fe3a
fe42
01f4
00e5
fca9
ffba
00ca
ffec
01ff
ffe6
fc9b
fe93
ffec
005a
ffdb
0020
f980
fc81
fed6
0017
0060
febd
ff35
fff4
ff2f
fe2a
ff26
ff3f
fff4
0038
0025
ffcb
0004
fc4c
00d1
0132
fe92
ff84
fe8c
ffe9
0165
fe84
0053
0105
ffef
fef9
011f
ff72
01e4
fd8a
01c4
0042
fe8d
008f
ff39
fff4
0127
0026
0036
00ed
fffa
ffb0
0012
ff6c
01b5
fd1d
0143
006f
fec6
fe64
ff81
fffb
0143
001f
001d
00d0
fff1
00d4
00b3
ffbe
016e
fcef
0088
ffd9
0003
0024
ffaf
fffb
0171
0062
0061
008d
ffec
ffcb
0037
fffb
0213
fe9b
0174
ff90
0050
fe9e
ffde
0000
012a
ff86
ffcc
0065
ffeb
ffec
018f
0004
002f
fd9a
00cc
007b
0181
ffa3
fff2
0014
0132
003d
010a
015f
fff0
0098
00d8
ffdb
00fb
fe5f
ffd3
0072
00c9
00aa
0089
ffef
fff0
001b
0027
0140
ffeb
0018
ffc4
0001
010f
ff39
ffa1
008d
01f8
000f
00bf
fff7
ff74
019b
0152
00ab
ffed
ffdc
ff67
000b
0152
ff96
ffe5
0123
0190
00a8
ff3e
fff7
ff78
005c
fffc
0068
fff5
0080
ffbe
ffe8
ffc0
000e
004a
0045
0124
0099
ff8b
ffeb
0085
0038
ff9e
0122
fff2
00c3
ff3f
ff9e
ff90
0009
00bb
001c
00b7
0077
feb4
ffef
01a4
ffdc
ff3f
0123
fffa
00e8
ff2a
ffa0
ff32
00ce
00a1
00b2
00bc
ffe0
0009
fff0
001c
ff92
ff64
0087
ffef
0051
ffd6
ff64
006e
001d
013e
0125
0073
ff7a
ffc6
fff0
0150
fed4
ff54
0076
fff2
001e
ffaf
ff48
ffea
0086
0032
0022
000b
0053
0021
fff8
00c3
fe24
ff8d
0244
fff1
00a8
ff99
ff85
ffc2
ffbf
0146
0178
ff33
ff26
0031
fffc
004b
fcb9
ffef
ff44
fff7
ff0f
00b3
ffe3
ff01
ffda
fff8
fffb
00f3
01cd
0072
ffed
008c
fbe5
00db
ffa0
fff3
0106
014c
ffe8
ff42
fedf
ff7d
ffb0
ff9f
ff77
fea8
000f
ff85
fb0e
00c6
ff70
0016
ff92
0106
0029
005f
0042
fee5
fe95
ff5b
fe4e
0031
0013
007e
fe84
035e
fc9d
0007
fc80
01a8
006c
0079
ff16
fecb
fcf6
ff8f
fd8f
0082
0013
fd39
00c3
011e
ffe7
0003
ff29
0009
0018
0031
01bd
0126
021a
ff87
0008
fca0
0005
fe10
033c
fc19
fb1c
fff8
fcf9
018e
0001
039e
02be
fb8d
0013
0344
ffab
ff9f
fff8
00b8
0021
fc6d
ff1f
0007
fbcb
01e9
0002
047c
054d
fcac
0070
00dc
fef2
ffd3
0001
0114
0285
0206
ffa5
fffd
0189
013e
0001
fffe
0147
01f3
0004
0056
ff5f
001e
0000
019a
ff87
0341
fffa
0002
fec6
fe9a
0009
fded
fd94
0302
02a8
fdfc
00fc
ff4b
ffff
0354
004c
013a
fe50
0004
fe71
016a
fffe
ffd1
01d1
fa64
fc3f
0328
fe9c
010f
ffed
02d0
00dd
fffc
ff6f
ffef
0282
fdf3
0009
0173
0017
000c
0041
fe21
009a
fe93
fff7
00ab
ff16
fc1b
ffbe
fff1
00c4
0037
ffc9
ff8a
fd46
007d
017a
fcf3
00fd
0078
fff7
00d0
001d
fbc1
ffa4
fff2
fea7
0003
ffd7
0169
fc9d
009a
0072
ff2d
feaa
fdec
fff6
ffdf
005f
fdb2
fd7f
ffea
0060
ff8d
ffa1
02ee
fe94
0167
00ba
ff4d
001a
fe4f
fff7
0195
ff7b
fcd6
ffdb
ffec
ffcd
006f
ff6f
02a4
fcad
017a
ff1b
ffb0
ffca
0005
fff5
01d9
0059
fdfc
ff1c
fff6
ffec
00a6
ff68
0164
fe84
00ff
0107
00d4
0101
ffcc
fffc
016c
011f
ff15
00de
fff1
ff40
0110
ffa0
014e
ff3f
00c7
ffcd
0007
002a
0043
fff5
020a
00ac
0060
007a
fff6
00ac
0182
fff7
00f1
ff77
0194
ff47
00e0
006a
0076
ffff
008f
ffed
0134
007f
fff5
00d2
0060
0013
00ab
0032
0143
009b
00fb
00c4
ffbf
fff3
006b
01c3
00df
00f0
ffee
ffb1
0080
0019
ffca
0061
0042
0051
0110
ffa4
0033
fff1
007f
001b
0131
00cf
ffef
004b
ff61
ffd1
00fd
0126
ffa6
00df
01b3
0034
ffaa
0000
ffe1
0078
0034
00ad
ffe8
ffcd
ffba
ffe9
000c
002c
ffc2
ffd1
02ba
00ac
ff16
ffe8
ffd3
0014
0050
00da
ffea
0114
ff0d
ffda
00d5
004d
fff2
fff9
00b9
fff5
004c
fff5
00b6
0032
0069
0181
fff8
ff9b
fffd
ff9d
003a
0041
00a7
006a
011c
001e
ff45
fff3
0058
ffc5
fffa
0197
ffef
00ff
0091
ffd1
ffca
00fa
0176
0053
00be
006c
0008
ffed
ffc0
0014
0069
0158
fff5
000a
ff97
ff6e
ffa9
00fe
0074
008f
007a
ffca
001b
ffee
0047
ff66
00c4
ffb2
fff7
0179
ffde
ff3f
ffbf
ffd6
ffca
00df
0020
ffc5
ff93
fff8
fee5
ff38
0175
0097
ffef
00cc
ffd8
ff7b
febf
0083
000d
ff80
ff9c
001f
0053
fff1
ff07
fc7a
01c6
0076
fff4
0002
0037
ffbe
fff1
0072
00df
ff07
ff9d
010e
0077
ffeb
0179
fa7d
00f2
01db
ffe8
0131
fffe
ffee
feca
0035
ff97
fee3
005d
0102
0018
ffeb
00b4
fd2e
0159
0181
ffef
00f8
ffac
003e
0177
fefb
ffe9
fe71
ffd5
019c
0094
000c
ff30
fcff
0272
ffd1
fff0
fc90
00c3
0049
0161
fe84
ff86
fcde
ffaf
ff10
020a
0006
fe0f
ffb0
ff5c
00b4
0007
fbbe
02cf
ffe1
fefc
fe75
00c7
ff5c
0278
ffce
0110
fff0
fd59
026e
fc99
04bb
0004
0197
fb73
0007
02d1
00ae
fecf
00c8
00bf
02e1
fcf5
0005
0162
00ce
ffa2
0112
0001
ff11
02ba
fffd
05ed
028b
fcc9
0220
029b
006e
fdf0
fff9
0007
0071
ffec
ff89
0009
042e
ffcf
0006
0005
03ca
0008
ffff
ffa0
0002
ffe1
0000
00bc
ff47
041f
ff47
0003
fd8c
fe93
0001
fed2
fd64
024f
0296
fd53
01ec
fe50
0005
02b2
fefa
0048
fe84
0008
fd0f
02a2
ffff
ff48
ff18
fe10
fdde
03c1
ff01
0200
ffea
014a
fde7
02a6
fd75
ffee
fe56
0106
0007
0308
feef
ff9f
0087
01b7
ffa5
feb4
ffed
fd84
fed8
008b
01a0
ffee
0022
feb6
ffb3
00ce
fd6c
004f
ffb9
ff2c
fe1c
ff50
fff0
fec7
0121
fe99
ff11
fff0
007a
009f
ffcb
01ca
fe47
ffad
00ec
feca
ff96
feb5
ffeb
005c
ffb3
fd34
ff00
ffea
0084
000c
ffc4
013b
0059
ffb9
001a
0107
0243
ffc3
ffec
016e
ff16
fcd8
00df
fff4
0100
0077
ffb9
ffb7
004a
0054
ff94
ffa9
00b4
0086
ffed
006e
ffc2
fb5c
00a9
fff2
0197
00a4
003e
ff29
0038
00a9
002a
0013
0187
00a8
fffd
0123
fffe
fbb6
ff37
fff8
009b
00af
ffcc
0079
0078
0154
ff7f
00b1
012d
006b
ffec
00d2
0099
fd82
00bf
fff0
0004
00e8
ffe2
00e4
0194
00c6
0099
0166
00bf
00fd
fff3
ffbb
0170
ff1b
0195
fff5
ff43
020f
ffd1
ff93
ffcf
0266
ffd1
0140
0182
00c3
fffa
009f
0071
006f
004c
fff0
0066
0033
ffdd
00a4
0053
010d
00b3
0180
0081
0017
fffd
003a
00b3
008b
0099
ffeb
0077
ff38
ffba
0053
0081
00b7
00fb
00f2
0030
ff98
fff4
0050
0051
000d
00d6
ffea
ff5b
ffff
ff98
00da
fff1
ffdb
ff57
0162
0039
ff77
fff1
013c
ffc0
004f
0198
ffee
00f8
fff0
ff91
ff7d
00cf
0009
ffac
00cd
ff35
ff90
ffef
00a5
ffb5
ff43
01d3
fff8
0039
0023
ffa7
ffa4
00d6
00cc
ffdf
011d
ffea
ffd9
fff8
005d
0039
0081
0148
fff0
0101
0130
ffe3
0005
0116
00dd
0026
fff8
ff05
0066
ffed
ff6c
0084
00f4
0127
fffa
0113
00e8
ff86
ff1c
0111
ffc5
0038
004a
00f8
ff49
fff5
ffbf
ff1c
014d
ff60
ffef
0013
0068
ff3b
0097
018a
003c
ff46
ff2c
000f
ff3c
fff2
00c2
ff3d
00a8
ffe8
ffea
00ab
00d7
ff5a
0000
002e
ffe4
fec4
fefd
0086
ff81
ffeb
0130
fb9b
01d5
00be
ffed
ffcd
00ec
ff7b
009c
01b0
ff5e
feb8
ff33
ffd5
ff4f
ffed
ff56
fbaa
0079
0008
fff3
ff95
ffeb
001f
000c
0125
ffd5
ff4b
ff98
0066
ff3b
fff6
fe3a
fda3
001b
0141
fff9
ffe6
0112
0018
003c
008d
ff01
ff3f
ff44
0144
ff9f
000d
ff5b
fffb
0278
00ae
fff1
fd06
01b0
004b
003c
ffa1
ffd6
fe92
feb7
0114
fe4e
fff9
fef2
fdb9
fcaf
ff5b
fffa
fb22
03be
ffd9
019c
0041
ff1c
ff39
050f
0288
fdaa
fff3
fd48
ffac
fe4e
00f2
fff9
fe1a
033a
fff7
0469
fe95
fe51
ff8f
031e
0452
fa17
0003
0119
fe2a
ff70
0087
0007
fffd
02ad
fffb
0606
0152
faf2
00c5
008c
0152
fdde
0003
0008
fffc
0009
0003
fffc
fffd
fffa
0007
0002
fffc
fffe
0003
fffa
fffe
0000
fffd
00b6
013c
0344
0077
fff9
ffaf
fdde
0008
ff1e
fda2
0245
02aa
fd22
01ba
fe4c
fffa
02c5
fdfe
fe1c
fde4
fffe
ffa4
03bf
fffc
002f
033f
ff78
000e
031b
007f
fc67
0006
feb7
fd5e
0289
000d
fffd
fe5b
000f
0000
0091
005a
0090
010f
ffa7
fdd1
0189
fff9
0099
00c2
017e
ffc5
fff0
ff19
fff0
ffc8
fffb
00a3
fe2e
0095
005d
fd37
ffee
ffe9
0031
01d6
ff7e
fd5b
fff8
003d
007c
ffae
fff5
ff9a
ff0b
ffcc
ff30
fdd6
0042
ffee
0105
0235
ffce
ff15
fff0
ff61
0081
ffc5
00b6
01c4
fea9
ff9d
ffa7
ff41
0047
ffe9
00c7
ff87
fed2
ffab
fff3
007e
00d4
ffe7
ff28
015d
0118
0004
0069
00fe
ffff
fffe
fee0
fef3
fea0
ff4f
ffeb
0051
0065
0011
ff8e
00fb
012c
00ae
0062
0125
febe
ffed
0034
008d
fb4e
ff20
fff0
0088
0072
fff8
0028
010a
0073
0063
005b
00bd
ff90
ffee
ff92
000e
f831
0084
fff7
0010
0086
ffd7
00c4
008f
00da
0117
0069
fec5
ff43
fff1
ffae
00b0
f8b7
ffdd
fff5
0015
00ec
ff9a
0093
006e
00ee
003e
00c7
ff3a
ff22
fff0
ff14
0077
f988
fff4
fff4
ffba
ffb2
ff95
00f3
00d0
0071
00d6
00ef
ffe6
0005
ffee
ffcb
ffe8
fd7a
005e
fff4
fffe
ffaa
ff4a
00cb
010a
00a4
010c
0101
0072
001b
fff9
008b
0093
fe51
00a3
ffed
ff8a
0064
ff66
00bc
00b7
ff4d
ffd1
011d
0028
ff96
ffe9
00ba
000f
ff8e
00db
fff3
00b1
ffe4
ff7a
0041
01ac
ff73
ff5c
0078
feb9
ff32
fff9
0055
0006
ffae
009b
ffed
01ca
014b
ff74
ff92
00c5
0006
0018
010c
ff45
ffb4
fffc
0046
0038
00d0
ff30
fff8
00c2
011e
ff9d
0047
00ba
ff88
ff97
ff58
0036
00da
fffe
016c
003b
0070
fec5
fff3
009e
0188
ffa2
004f
005f
0066
ff93
ff83
ffaf
ff97
ffff
fefc
ffbf
0055
fe7c
fff4
ff20
00e3
ff82
ff93
0036
0117
ffc5
ff26
015e
ffa4
fff3
feb5
016f
ff75
006f
ffe9
ffc8
0101
ffa1
fef4
005b
004b
ff08
ff18
00a1
ffef
ffed
004b
fb65
009e
0093
fff9
ff92
0158
0008
fed8
00a6
0104
0100
ffd8
008b
ff95
fff2
feac
fcf8
ff72
000b
fff6
ff87
0116
0039
fe72
006b
012f
ff9a
fef5
0055
ffe3
0016
0010
fff1
012e
01f9
fff3
fdc3
00bf
0015
fe58
ff65
ffba
ffa5
ff6c
0030
0048
ffed
ff0f
00d5
008e
fda9
fff1
fdc7
ff63
0035
ffe5
ff4b
fed4
ff96
003b
ffe2
0130
fff4
00d7
0218
f99e
fddc
fffb
ff03
01ba
ffad
015a
05cb
ff9a
ff05
0199
0037
fe35
fff3
00a4
027b
ff06
fd5d
fff8
0039
ff01
fffd
012b
ffb6
ffa9
0007
0430
ff84
010c
fff9
0099
fd0a
fde0
ffd1
0005
fffd
02a7
fffa
06a4
01ec
fa69
ffc3
fea2
0262
00c2
fffd
ff23
032f
02c5
ff16
fffc
04d7
facf
fffe
ff50
00bc
ffe8
fe7d
fef1
fe58
0298
fff7
0003
0192
02a6
0047
0002
ff83
ff81
0000
0035
fff2
ff3c
0256
fe20
0368
fd29
ffff
01d6
00be
ffff
fdd1
fffb
0127
ffa5
0003
ff30
0499
ffce
009c
ffc6
feea
fe3d
0010
01c2
fb5a
04bc
02b7
0004
fdd9
0079
fffd
ff31
016a
0221
0018
00e7
fed1
004f
fff3
fe5b
00ce
01dd
015e
fff3
fe2e
ff5b
ffa3
ffec
00e3
00ae
ff2a
0223
feea
0081
ffee
0078
0003
0062
fe08
fff7
ff37
ff57
ffb4
010c
0062
003f
0032
009e
013f
ffe2
fff3
fff7
00be
00ac
fe3a
ffec
ff29
007a
ffa8
007b
0028
0164
0000
004f
0098
004d
fff2
0020
0030
005e
fd80
fff5
0005
01c0
ffa2
00b8
016f
0025
feff
0103
ff21
ffbb
fffd
fec6
ffce
011c
ff0a
ffef
ff71
015e
ffc6
0050
ff56
ff17
00a1
0035
ff98
fffe
fff7
003c
ff82
ff59
ff97
fff6
ff15
004c
ffb9
fff1
fefc
009b
003b
fff6
ff6b
fed3
ffee
fe62
fef3
feff
ff58
fff0
ff09
ffc4
ffd7
0003
feb0
01c0
00b8
004b
ff39
ffb1
ffef
ff7d
ff72
fda4
fefc
fff0
0075
ff2e
ffe1
fff4
fff3
007c
0057
fffc
ff8f
ff55
fff7
0044
0073
fb82
ffa3
ffed
ffc6
00c6
ffe3
00b8
ffd1
ffbd
ff83
010f
ff8f
ff0b
fff1
0108
0070
fbaf
0041
fff5
0186
ffab
ff9e
0053
00b4
0067
ff80
00bb
ffb1
fe72
ffff
0094
0100
fef5
005a
fff2
011d
0046
ff77
0084
0085
ff91
006e
00cd
fec2
ff7f
fff2
ffc1
007d
00a7
ff2b
ffe9
ff6e
00e6
ff86
0028
0109
ffab
00e6
0025
ff33
ffbd
fff5
00ec
001e
0041
fdf0
fff4
0129
017d
ff9a
0039
0097
006c
0097
ff1c
0134
ff99
fffc
ffb1
01a9
ffa2
fdb4
ffe8
008e
0063
ffd5
00da
0084
0066
ffc6
ffa6
0061
ff5c
fffc
fed9
001f
ffcb
fde5
fff2
007a
00e6
0002
0030
0139
0026
00c6
ffc4
002c
0003
fff1
ff7b
0042
00a5
fcd5
ffe9
ff18
0098
fff1
006b
006b
00d0
0019
ffa0
0090
ffed
fff8
ff94
005a
ffd2
fcd7
ffec
ffa1
fed8
fff8
003f
ff8b
009a
ffdc
000b
0048
ff83
fff4
fff1
f814
01a4
fdc4
fff5
ff87
0227
0048
0081
ff6f
ff65
017b
ff79
0108
ff52
fff6
fec8
fb2b
0011
fcf6
ffef
ffa7
00b8
0029
00d3
fed7
ff8d
ff66
ff27
00b2
0159
000d
0215
fe24
fe93
fef3
ffed
fd26
00dc
ffc3
ff56
ffdd
0015
ff95
ff7f
ff29
fe7c
ffec
010b
015c
015a
ff27
fff7
fb83
0003
ffe9
016a
02f7
fea7
00b7
ffb4
feea
ffdc
0006
feaa
02ff
fcad
022a
0008
fe93
01c1
fff8
03e8
02fb
0050
00fc
ffd2
00e1
006b
0008
0246
0529
001b
026b
fffb
013a
fba5
fffd
00af
0452
0070
ffb5
022c
0285
04a4
fff8
0197
0116
fe55
020b
fffa
ff3e
ffbd
fffe
04a5
0481
fb5c
02a2
00ed
0439
01c4
0003
fffe
022d
0050
ff23
0006
ff22
fff9
fffe
fea9
fffc
fffd
0109
ffe3
01dd
fe19
fff8
0060
04aa
fd2c
fa98
0005
057d
ff7f
0001
fcfd
00cb
fdd8
fcec
f9e8
fc2c
02c1
0008
0291
00de
fe43
ff38
0007
0408
ffaf
fffd
fc23
01b3
01b0
0095
fc6d
fd5d
0135
000e
03cd
fa61
0279
0348
0008
0002
0060
fffc
fe8d
0018
0361
00c8
01b7
0228
fd2d
000d
018b
ffc8
0148
016d
fff1
ffa3
0116
ffa9
ffd3
0258
01a3
ffc3
ffc7
0023
0216
0013
fef0
0046
018f
fdaa
fff4
0034
018d
ff7d
feaf
01f3
ff39
003b
002b
01a0
ffb1
fff7
fe6e
002c
015f
ffe9
ffec
fe23
0074
ff4c
ff9b
0067
ff91
ffe0
002f
fed0
0019
ffe8
fe33
0032
ffe0
fef7
fff4
ff5f
0122
ff6c
00ba
00d2
004c
00fb
0093
002e
ffa5
fff8
fd17
fff4
0146
fe27
fff2
ff93
00de
ff80
0079
00a9
0169
0035
ffe3
fe5c
ffc0
ffee
fe79
ff5b
004c
fd8f
ffea
0025
015a
ff7f
0090
0099
ff88
0020
fff9
ff8d
ff5b
fffb
feca
ff4d
0199
fd0d
ffea
ff5e
0160
ffbe
ffee
00d0
ffce
ffc5
0149
ff9c
ff92
fff9
ff5b
fef8
0113
fe8b
ffe8
ffc4
0141
ffb9
0063
00d1
ffef
ff1a
001c
fe51
fea8
fffe
fda2
ff64
00ba
ff26
fff4
ff0f
0150
ffa8
008d
ff14
00c2
ffdb
fee9
ff61
fff0
fff7
fec0
ff9a
ff7f
ff80
fff1
ff9d
ff36
ff46
00ff
0030
ff77
fff8
0049
ff76
ff33
fffd
ff62
00a7
ff0a
ffbc
ffeb
000e
011c
ff6a
00e4
00b3
ff9e
ffea
00cf
fed3
ff6b
fff5
ff59
00c3
ff8d
fed4
ffea
ff5e
016a
ff82
ffc9
009a
0102
0049
0023
ff9a
feb5
fff9
ff64
ffd6
ff78
fdac
fff3
feb6
001a
ffa2
003f
0062
010c
0053
ffd6
0101
fee2
fff6
ffd4
001a
ff99
fd02
ffea
001f
0075
ffe6
00bd
0052
ffbd
ffdb
00a0
009f
0017
fff3
ffcc
010c
007a
fcf5
fff5
ff06
0195
ffec
0046
ffc7
0002
007f
00c9
0062
ffe8
fffb
ffd4
00fd
ff90
fc9f
fff3
00ab
ffc4
fff5
00ed
00d6
0021
ffc3
fff6
0109
ffc9
ffed
ffef
ff82
00b0
fc1f
ffee
ff36
fff9
ffd5
ffe6
ff78
ffd8
ff28
0003
001d
0028
fffb
001c
fcc9
0171
fba9
ffec
ffe9
00ab
000d
0097
013f
ff9b
fed8
ffde
008f
ff73
fff0
fe6e
fba5
ff76
fb28
fff2
fef1
00b1
fff7
0236
fe7e
ff7a
0040
00b4
010f
0081
0015
00ce
fd8f
0023
facc
fff1
fc9e
0023
ffba
00bf
ffd1
ffbb
026f
004a
fff2
ffd5
ffff
0159
0096
0136
fc16
fff5
fe13
ff7b
ffb5
00a5
ff8f
ff1f
0090
fded
fe28
0107
fffe
fdd8
0129
01b1
0164
0009
ffe0
004d
0008
05ae
009f
fea0
fff4
fecf
ff8c
fe7d
0004
014e
020e
fd1f
0051
fffd
fc38
0108
0008
03e4
0418
fbf5
022e
0505
05d9
fcf7
0009
0049
029a
ff05
00a5
0008
fe0b
ff58
fffb
01f4
ff47
fe60
01d5
0209
0197
fd6d
fffe
0008
0007
0004
fff8
0005
0004
ffff
0008
0003
fffa
ffff
0008
fffc
0002
0009
0003
0164
03ff
024f
ff68
0006
02a4
0436
fffb
fe12
0029
fe97
fc63
fbd5
fd60
049b
0004
027a
022c
ffdc
001c
0006
0017
025c
0002
fff2
04b6
ffa6
012c
ff6d
ff70
017b
0014
ff0b
fdf1
0247
0085
fff9
fdc1
0068
004a
0311
0255
03ef
0204
ff5e
0117
fe97
0015
fe6a
010a
012e
fddc
fff7
fcaf
005e
001b
00a0
00dc
01c6
01eb
fea4
fe6d
01be
000e
fed9
002c
0086
fd46
ffe8
fe69
0132
ffb3
00dd
ff71
fe95
0148
ff3d
ffd7
0295
ffec
fc01
00df
0210
fe49
ffef
fee6
ffd3
ff55
007a
ff18
fe90
ffc7
ffa0
00d1
007c
ffef
fd1b
0042
ffdf
fe8c
ffee
fe68
0070
ff5b
00c2
00c8
ff4f
005b
00e9
011d
0002
fff8
fd9f
fff1
0036
fd6c
ffee
fdfd
ffa1
ff45
0054
ff9c
ffd1
ff40
ff7c
00ae
008d
ffec
fd53
fe5e
0065
fe0d
fff8
fea1
ff8a
ff7c
0076
fff5
00ba
ffd7
0035
0019
ff8b
fff2
fdf3
0086
ffb8
fdc4
ffea
ffb8
0135
ff6f
ffe6
ff07
ff46
fef7
ffb6
ffd5
ff7d
fff0
fe60
ff0d
004d
ff67
ffe8
ffa6
0111
ff95
00a2
ff78
fe39
feeb
ff79
ff3e
ffd9
fff5
fe49
fec6
fff1
ffb7
fff2
ff21
0116
ffb0
000a
ff82
ff2e
fea8
ffc1
fee2
ffcc
fff1
ff4f
ffc6
ffc5
ffa5
fff4
fef7
0042
ff89
0018
fff7
fff8
feeb
ff8a
ff39
008c
fff3
fedd
007e
ff0b
00a1
ffee
ffd1
0118
ffae
006e
009b
ff67
ffa5
0058
ffa6
ff91
fff6
ff70
ff97
ff51
ff67
fff5
ff8d
ffdf
fff7
ffa0
00e2
0044
0094
0043
ff5c
ffff
fff6
ff36
ff77
002a
ff2b
fff4
fef2
fff0
ffd6
ffc9
fff7
0070
ffd3
ffeb
ff2d
fee3
fff1
0054
ffc1
00b8
ff6d
fff6
ffd7
ffc6
ffe3
ff17
0054
00ea
007f
fffb
fede
ff03
ffee
00a2
00ca
00c9
ff22
fff5
fe6e
0101
ffe3
007a
ffbd
003e
ffaa
00f3
009f
fe8a
ffed
ffc0
00a4
ffe2
fd0a
ffe8
ffde
00aa
ffec
00df
ff8f
010d
0077
ffd8
ff64
0015
ffeb
00cc
fde7
ffaf
fa63
fff5
fd5f
00f9
ffcf
ffb1
fffc
004c
ffad
0121
0110
ff90
ffec
ff48
fda2
ffc8
fbb6
fff2
fea4
00da
0007
ff61
00ec
004d
febb
0058
0087
0076
000c
00d6
fbfe
0077
fb0e
ffed
fd8b
fee6
ffff
0087
ffcc
0079
ff26
0004
00b4
002a
0004
00c1
fb6e
ffb5
fc1a
fff6
fcdb
ff39
ffd5
00a9
0068
007d
0075
ffbc
0124
fff7
fffd
fdc0
feee
ff32
fd72
fff7
ff23
fe11
ffae
0030
004e
ff8a
0055
00bd
004b
fe16
ffff
fe23
fe7e
fe8b
006f
fffd
ff99
fbfa
0001
0472
fece
01e9
ffb9
ff68
ff65
0072
fffc
00b4
00e0
0175
ffc8
0001
fbc4
013d
0004
04e2
030e
fb1a
049f
0113
04c5
fd9f
0002
ffdc
031f
ffeb
ff4b
fffb
ff08
ff9e
fff8
fe7c
0004
0038
016b
ffec
0258
0104
fff9
0002
02f9
0014
0075
0000
ff47
0001
fffb
0010
ffd7
fffe
0115
00b6
01ec
fcac
0005
00fd
0088
01b1
0065
0008
ff87
fffc
fffc
014f
0180
ff00
0111
0151
02c6
fde5
0009
0159
029d
0034
ff5a
fff8
0011
fed7
0004
0166
030e
fe98
03d5
ff15
0463
fdc5
000b
fdd1
0182
ff5e
fefd
fff9
fecf
0286
0043
02f9
030a
026c
ff96
fdc2
0174
ffde
0012
0174
0094
0185
fcce
fff6
00e2
00b1
003f
fe81
fff7
01b8
ff5a
023d
ffd4
0154
0007
fedd
fdfa
00d3
fd89
fff6
0088
ff94
005e
010d
ff42
032b
fed7
ff8f
fece
feba
0015
fcd5
003f
ffc0
fd3d
fff1
fead
ff96
0067
ff9a
ff43
0076
00a9
012e
ff92
ff96
fff7
fe8e
0098
00f8
fe00
ffef
fe51
00dc
0054
ff96
ffda
004a
0008
009a
ff69
ffc2
ffeb
0066
ff3b
015f
fff8
fff6
ff15
ff80
0014
002a
ffc0
fe9f
0019
ffb3
ff13
0017
ffe8
ffb4
0059
0077
ff8a
fff2
ff9f
ffdb
002a
fffa
feb5
fecb
ff26
00d5
ffc2
002c
ffea
ff45
ff01
0072
0071
ffef
ff1e
0054
003d
00d2
ffc4
fef2
0006
ff82
ff2b
ffc5
ffef
fff8
fff5
ffe1
ff66
fff7
ff67
005c
fff8
ff72
ff88
fedc
ff7a
006c
ffab
0010
ffee
ff3e
ff50
00e0
0011
fff6
ffd7
0062
ffe1
003d
006f
00b0
ffad
ff64
ff4f
ffb1
fff1
ffa8
ff3e
0040
fe97
fff3
ff31
0092
ffb8
006c
ffeb
005a
ffdd
00c1
feda
fffe
fffe
ffa6
ffa6
0002
ff89
fff0
ff4d
0009
ffde
ffba
fff7
ffbb
ff84
0094
ff36
ffde
0002
0008
ffe8
0018
feec
ffe8
ff5e
ffc4
fffd
002d
ff57
0019
fed1
0074
fff7
ffbe
fff1
ff76
fee2
ffdd
ffe0
fff2
ffa3
ffcf
ffe7
0039
0067
0090
fff7
0012
ffe6
ffdc
fff6
00ae
0021
ff50
ff1d
ffed
fe9a
0080
fff3
0022
002b
0034
fea5
00d2
0003
fedf
ffec
ff1c
ff45
0005
0088
ffec
fe9e
ffed
ffd5
00f7
01cb
006b
00de
00a7
ffbd
ff0c
ffed
0013
ff79
fff6
fe2d
ffec
ff79
fff8
ffdb
00ed
00f5
000e
00a6
fefb
0007
ff14
0009
00df
ff94
0080
fc37
fffa
ff6b
ffc5
ffc8
ff01
ffbb
0158
ffb8
ffea
fec1
fedb
000f
002d
fdd6
0023
feb4
fff8
ff2e
ff50
ffeb
0189
0064
0051
0168
ff6c
fe5b
ff98
000e
0154
fb3c
fe93
fb1d
ffea
fea7
0043
fffb
0149
fede
0210
0024
0136
013a
0079
0004
01f2
fe35
fe16
fc87
ffed
fd9d
015d
ffb0
0109
feb9
ffd9
ff64
00fe
feba
ff82
fffe
fd59
003d
fcc3
fcbf
fff4
0037
fb79
ffa2
0184
ffb2
ffb6
00ac
fcc4
fbcb
fc5b
0006
fedf
fd67
fe9a
004f
0004
ff35
fed8
ffff
03ef
fe5b
fef9
fe70
ff4f
0069
fe34
0009
00db
fcae
0104
0086
fffe
f9d7
0567
0004
03c2
f9a9
fba3
fd11
0457
0158
05dd
0006
0021
ffff
0002
fffc
0007
ffa4
01f1
ffff
ffff
fff9
00fe
ff15
fe56
ffc9
0200
0003
ffff
02f0
0007
006b
ffff
ff49
0008
fffa
0019
ffcc
fffd
0119
00ac
01f2
fcb2
0002
00bc
01c8
0129
004f
ffff
ff9d
ffc9
fffe
ffb5
ffc4
0054
00fe
0094
028f
fcd2
fffa
0260
008e
fe9b
ff4f
fffb
fd70
047e
0002
01da
0169
fc6e
02ed
0150
00cf
fef9
0011
ff8f
016f
fea5
ff57
0001
022b
0327
0048
0207
ffff
fd16
00a3
fef0
0179
ff6d
0006
ff6f
00a4
01d8
fd94
000c
0286
ffbd
003f
0110
0072
00ce
fede
04d3
007a
fcd9
0013
ff02
fff2
005c
fd83
ffe9
ff6f
002a
0054
02eb
00b6
fee0
ff76
0169
ff71
ff56
0019
fead
005c
ffb5
0132
fff3
ffb6
ffe4
0056
ff90
0046
fd8b
0055
ff55
002e
003d
001a
0049
0095
ffd0
fece
ffef
017b
001b
004f
0075
0006
ffa0
ffeb
ff8c
ffe8
0039
fff2
ff28
ffe5
0001
0121
fff5
0119
005e
0053
00d9
0038
fe97
0030
ff96
fe70
00d5
fff4
ffdf
007e
ff8f
ff89
ffec
ff5f
013e
0047
000a
00fe
fe64
ff64
006c
ffa1
0060
fff7
ff3d
006e
ffdd
0088
ffed
00dd
0083
0037
001f
0075
0019
ffdc
0001
ffd3
001f
fff2
0014
00ac
0053
fe06
ffea
ffa7
015f
ffdf
ff8f
fffc
00d1
0009
00a4
ffb4
0029
fffe
ffb0
007b
ffa5
fe8d
fff1
0030
0088
ffa9
ff6f
fff9
00c7
ff50
0013
ff35
006c
fff0
0047
0050
ff65
fecd
fff2
ff6f
0072
ffa6
ffcf
ff63
ffe4
0023
ff33
ff1e
007f
0001
ff5f
ff67
0032
ff0b
fff3
ffd9
ff3c
ffd0
0084
ff8c
ffcd
0012
ff6b
ff03
0054
fff7
0044
ff48
00ba
ff07
fff6
ff62
0037
ffef
ff20
005c
005c
ff58
0021
ff5f
0017
fff8
fed8
ff72
0028
00b1
fff1
ffa8
ffb7
ffc9
0023
001d
0010
ff73
0044
0047
fffb
fff8
fed4
0078
ff9a
0077
fff4
ff20
0024
ffbc
ffb1
0156
ffd5
ffb7
000f
ff7f
ffc3
fff3
007c
ffca
feaf
00d5
ffea
fecb
fe3b
ffca
0039
0032
00bd
ff3d
000d
009c
ff3a
fff7
ff98
00e9
ff07
0066
fffa
ff4b
0027
ffd0
00a1
0086
ffb6
0011
014f
0032
ffc5
0011
00a6
ffcf
0121
0116
fff0
002a
ff68
ffa9
00e6
008f
001c
00c8
ffa3
0054
fdf7
0007
0042
fc79
fed3
ff83
fff7
ff39
00df
ffa2
01b2
002a
ff72
ffe9
ff94
ff03
fdd1
0016
00e7
fb89
ff1e
ff58
fff4
ffa1
010d
fff3
ff17
02a0
0263
01d8
feb0
00f1
0033
fffb
ffb9
ff80
00fa
fe9a
ffea
ff98
0010
ffa5
0036
0023
01c8
0141
ff50
fe7a
ff9d
0007
fc90
007a
fe5f
fe2d
ffee
00ed
fc06
ffa5
02ca
00a8
fdc7
ffa4
ff69
fdcb
ff62
0005
fdec
00e6
feb4
ffe6
ffff
00ac
fccf
fff8
0068
fff2
007b
fff4
feea
0005
fe3c
fffd
028a
003c
0193
03b3
fff8
fbac
fe56
0001
fe5b
fb8f
01cc
fdd9
fdd0
007c
005c
fff7
0027
0002
0001
fffc
0008
ff6c
025c
0006
0009
fffe
0151
fec9
fdf5
ffab
027f
fffa
0002
fffa
0006
ffff
fff8
fffa
fffd
0004
0002
0000
0004
0009
fffa
0003
fffd
0008
0003
fff8
0006
fff8
fffa
fffe
fffa
0000
0005
0009
0003
ffff
fff8
0005
fff9
fffe
0282
fd80
040e
fcdc
0003
faf4
0523
0001
fefe
ff42
fe03
0311
00ef
016b
ffe1
0013
053f
fdb3
0662
fe23
fffc
fee2
026c
fffb
ff9b
fce0
01da
0022
feb9
0289
fff1
0013
0415
0130
01fd
fb93
0008
008d
ff4a
ffea
ff04
ff4f
ffea
ff26
026d
ff96
003e
0007
01c3
0276
008d
fd92
0006
fe58
0047
003c
01e2
0039
ff9a
00a7
ffd9
017c
ff0b
0014
02b7
005d
ff72
febb
0008
fe25
0085
0051
ffb1
01d5
fff4
0060
ff58
fe81
0083
0013
02f8
ffd3
ffb7
ff32
0018
ff02
0061
004d
00ab
00d9
0064
01f9
ff72
0110
00a1
0016
00f8
0151
ffe0
0014
fff2
ff12
fff3
0041
0006
fe4c
01ba
016b
0104
0066
0074
0003
00f0
ffc8
0035
ffb9
ffec
fe3c
ff4b
003a
ffef
ff76
ff5c
ffd7
ff06
00c6
ffcf
000e
006a
ff7e
00a2
ffcc
fff7
ff2f
0010
ffe2
fed5
ffc9
00ec
008b
ff18
0037
0050
fff2
009c
ffbd
0091
ff3d
ffec
fed6
0058
ffbe
00af
0025
0064
00d0
ff44
00f1
00ca
fff7
00a1
fff2
fff9
004b
ffeb
ff54
ff44
ff8a
0057
fea4
ff06
ff1b
0057
0017
ff99
0001
0072
ffe7
ffed
000b
fff7
ff61
ffb2
ff82
fff0
feda
ff6a
003e
00ba
0010
00d6
fffc
017a
008f
fffc
fe73
ffe9
ffb7
00cf
ff9b
fff4
ff41
ffbe
fff4
fff2
ff71
00a9
fff9
0080
0073
0036
fe59
ffef
ff69
ffb9
ff97
002f
ffc0
0029
fff4
0078
ff9c
005d
fff6
0077
0007
ffcd
ffd0
fff5
ff65
ff1d
ff80
ff14
feed
ffa3
ffe1
00ce
ff97
ffc9
fff0
ff16
ff61
ffa0
010b
000d
ff4e
000a
ffa5
ff24
ff36
ffac
0066
ffba
ff9f
0121
fff1
0081
fe46
fff6
0003
000e
ff67
00be
ffdf
ffec
ff70
0098
ff77
00d0
0054
010c
fffa
ff88
fd68
ff8e
0166
0014
feb2
006f
ffc8
ffbe
0117
0052
ff77
01de
ffcc
ffd9
fff3
fe97
0025
ffef
ff5c
fff4
fe08
0047
ff86
009b
ff20
01fc
0013
00c3
002d
ff0d
0002
001e
fb7c
ffa1
00b6
fff6
fe5b
00b8
ffc1
00d2
ffb8
01a3
013d
0166
ff9a
ffeb
fff8
fe64
fd88
fc58
0023
fff4
fe93
fea5
000d
010d
01a1
02a7
0239
0193
fee1
01a4
fffa
ff39
fe8e
fddf
007e
0008
feb5
fd97
ffbf
00ff
ff13
0170
02ec
0428
fe99
fff1
ffff
fd23
ffe8
000b
005d
fffb
ff38
fbb7
ffbf
037f
0087
ff46
014f
015d
001e
fe2d
0008
fe4e
0009
fdc9
0219
fffd
fda0
fcfc
0000
0047
ff4d
00bf
009d
00d5
0005
00f9
0000
0320
ffbc
032f
02eb
0006
fd7c
fc5f
0005
ff12
fbe6
0187
ff30
fde1
026e
fc3c
ffff
fffa
fff8
fff7
fffc
0005
fffd
fff7
fffb
0000
fff9
0003
0002
0005
fffa
0006
0000
0001
fffc
fffe
fffa
fffc
ffff
fff9
0009
fff8
0001
fff8
fff7
ffff
0001
0007
0000
0003
0009
0002
fffb
0005
0003
fffd
0009
0001
fff8
fff9
0005
fff7
fffb
0001
fffd
004c
008e
fee3
fcf1
fffe
01f6
fd64
0006
01a4
0308
0006
fdf7
0135
ff78
ff32
fffb
04c0
00c3
06bc
fd90
0004
fec2
fde4
fffa
fecd
ff3b
02ee
00ee
ff5f
0056
ff16
000d
0265
fbb2
037a
fd9e
000d
ff54
00b0
fff9
0091
02f2
0051
01d6
ff61
010d
02e6
000f
0159
ffd9
016b
ff98
000f
0242
00d2
fff2
0033
0289
ff87
fec3
fc43
0132
007c
0013
01c2
ff89
019f
ffd1
0006
0057
fe11
0000
fec7
00ea
ff4b
008c
fff0
00e2
ffef
0017
ff88
0018
0183
0085
0009
00da
ff59
0017
010c
ffa9
fec3
ffcf
fef2
00c3
0094
0008
ff7a
002a
0011
0079
000a
ff60
0060
fffb
011e
fef9
010e
0024
0054
0091
011c
0006
00e3
ffb3
001c
ffc2
fff0
fec5
0001
ffb5
ffa5
fff5
00cf
ff10
0042
ffa3
fedc
0012
ff97
ff6f
0041
ff20
fff1
005f
ff8b
ffa3
fff4
ff15
0086
ffa6
0072
003d
ffe9
0016
000b
ff56
007f
ff8f
fff0
0065
ffa9
ff89
ffd6
ffe5
0079
ff53
0087
005d
ff49
0016
ffe2
007c
ffb6
fea9
fff5
ff68
ff4d
ff87
0059
feba
ff4c
ff9e
005f
febe
0045
001e
0104
ffda
00e8
fee7
fff6
ff85
fff7
ff98
ffa8
ff7d
016a
0083
0045
003b
00f2
001b
ffec
fe5d
ffe2
fef8
fff8
fef0
ff4e
ff97
ffeb
0030
ff24
fe63
000c
0048
ffc1
0017
fff0
ffdd
0067
ff12
ffea
ffac
0014
ff91
0099
ffc7
fffb
ff79
fed7
ff29
0008
fff1
0069
ff8d
00ce
fd53
ffee
ff8b
ff8b
ff9d
ff17
fe91
00e9
0055
013e
0123
ffda
fff5
ffd3
feda
ffef
ff1a
0007
ff66
fe8b
fffe
00a6
00f3
ffe2
0000
ff2c
004f
ffd8
ffee
0132
004e
ff48
00f9
0008
fe77
feda
ffdd
fe6d
fd8a
00b6
ff5d
ff27
ff5f
0071
fff6
0060
fedc
fd77
00dd
0017
ff9b
fcd0
ffa3
ffcf
fe84
0036
fe52
00ec
ffe8
004c
ffea
ff78
0073
fe28
014e
0008
0090
fe6e
ffb0
00cc
fec5
02e9
fe2d
ffec
ff81
fec5
fffb
ff04
fc74
ff01
0112
fff5
ff43
ff69
fff9
ff23
ff11
00a0
0214
ff81
0260
0029
fff9
0074
fea0
fef8
ff09
0003
0030
fd9e
fffe
ff4f
0072
ff2d
0125
ff72
ff91
ff1d
fff8
ffd4
0005
0119
ffe0
0009
00ba
fcb3
0002
ffac
0101
0455
02d1
fff1
00db
0092
fffb
fea5
fede
ffa2
fe9f
0004
fcb1
fca7
fff8
0527
0516
0054
fee1
0114
fbeb
0210
0003
0320
fe4e
ff6e
0262
fffd
fd3b
01b4
0007
032c
01e6
fe2c
01bb
02d4
fe82
fad9
fffd
ffec
ffc1
006d
026d
fffb
fd16
0278
0001
0340
ff35
fd8b
fdcd
01da
fd65
fc81
0002
0006
0008
fffb
fffc
0000
0002
fffd
fffb
fff7
fffa
fff7
0000
0002
fffc
0008
fffd
0000
0001
fffc
fffb
ffff
fffc
0007
0006
0005
0005
0001
0002
fff8
ffff
fffa
0006
0009
0007
fffd
0006
fffe
fff9
0004
fffb
0006
ffff
0008
0002
0005
fffd
fffe
fffe
ffc3
005e
0131
0007
0005
00f6
00aa
0003
ff91
000e
037e
0284
ff45
00f8
fd2a
fff9
00e7
fe66
0187
ff1b
0009
00e2
fea5
fffe
043f
02d7
0130
fe47
fd63
fc76
00b6
0007
ff50
0080
03cc
fe26
0005
00e0
0191
0009
ff7a
014c
fdc0
fe31
fc82
030f
0005
0007
f9c0
ff9a
049f
fd77
fffd
0127
fcfd
000a
fea2
ff98
002e
0097
fd77
0489
0012
0000
fd6a
fd4c
024b
ff1c
fffd
fe7a
fc4b
0014
0139
0028
00c7
fddd
ffcf
01d1
fff0
0007
ffd5
01be
0325
ff29
ffff
ff7a
fbbc
000d
028d
00a4
ff56
fead
ffd6
00ca
0162
0002
ff8e
0099
0246
ff9e
fff8
ff83
fa2c
ffa1
00f1
0141
0193
003f
0090
02ec
0195
fff3
fe73
0043
004a
0088
0017
ffd3
fbdc
ffad
00d2
0202
0219
fe20
00bb
0174
008c
ffeb
fe85
fed0
0215
fe30
0013
0016
ff01
ff90
fffa
feb5
ff58
fe93
0151
011b
018d
0017
ff84
fffe
00c6
ff4c
ffea
00d3
fe11
ffa6
ff79
0071
ff9f
ffd2
fefd
ff4c
00c2
000a
ff3d
0105
01fa
fe86
fff6
ff04
f94b
ff92
0193
019b
ffdc
001f
0023
007d
0156
0017
ff89
00cd
0102
ff17
ffea
ffc8
f9c7
ff9d
fea5
ff6a
0105
000b
00d5
0127
0000
0014
fe69
0027
ff73
fff2
0010
007b
f9b7
0007
fff4
0016
019f
ffff
0018
0011
ffce
0006
ffde
fe71
0065
ff5a
000d
fec3
fc47
fff6
0254
0123
0068
ff0e
00d1
fef8
027f
0008
00d8
ffdc
0085
ff76
fff0
0118
fbb8
ffe8
00c7
0199
01ee
ffae
011d
fe4f
0240
000b
ffc3
00a9
ffe5
fede
000e
fff3
f7ef
fff9
0017
ff38
0161
fd8d
01d9
fd1e
023a
0016
ffeb
007d
ff81
ff97
0018
ff8f
faf7
0038
fdbf
007d
01f0
001e
ff3d
feeb
003f
000d
fdbb
012d
ff02
fbf1
000a
fd2e
fdc8
ffee
fdff
fffe
0333
ffb3
ff3b
0094
0167
0007
fc5d
fd4e
ff89
feaf
ffec
fe98
fb9f
0006
007f
00b8
02d9
ff4c
0106
016c
ffcb
0005
fe66
fd8f
fedc
ff01
0011
00b6
fe1b
ffdd
fee8
febd
032b
ff28
ffb3
fefe
00c2
fffe
006a
024f
00c9
fffc
fff7
ff4a
fc65
0007
fefc
fafa
0028
fe66
fc5f
fd64
01c7
fffd
01ca
014a
01d0
0075
0004
ff93
fc09
0005
ff3f
fc00
0272
fef0
fc23
ff29
ff6c
0009
0110
ffe4
ff79
fe97
0005
fd62
fc8d
0006
01f2
fe20
01db
fac0
fcea
fb44
041e
0002
ffff
00eb
0001
018e
fffd
01a1
01de
fff7
0000
ff9f
027c
019e
fdda
ffe8
fe2a
fffd
ffeb
fedc
ffbf
0036
fffd
fd42
0279
0008
022a
ff33
fd97
fdc4
0292
fdf9
fe35
0000
fffc
fffd
0008
fffc
fffb
0008
fff9
fffb
0000
fff7
0006
0001
0008
0004
fffd
fffe
0005
0006
0000
0002
0006
0001
0004
0003
fff7
0004
0005
fffb
0002
0001
fffe
0003
0000
0007
fffc
fff8
0005
fff7
fffc
fffd
0009
fffa
fffb
0003
fffe
ffff
0001
fffd
0003
fffa
0008
0004
fffc
0007
fffa
ffff
fff7
0006
0003
fffe
0001
fffc
fffd
fffa
0030
0180
047e
015e
fffc
01d5
0007
fffb
0007
ff5a
00d9
0290
fd45
0121
0197
0003
fecb
ff69
016d
0148
0002
feaf
ffbe
fffc
fd49
ff91
01e9
ff26
01a9
01d4
011c
fffa
f9bd
ffaf
02ea
006f
fff7
fe9d
fd99
0006
fe31
fd69
0487
0228
0147
0147
fff8
0005
fb6e
fdf5
01cf
040e
0004
0060
fd42
fff9
fe37
ff83
062c
024a
010f
ffeb
ffe6
fffb
fb88
0250
01f1
00e8
fffc
ff8a
fc99
0049
ffbb
010a
045b
00bf
0179
ff80
049c
0009
fd2d
00cd
fdda
0057
0005
018e
fad1
ff89
fe7c
0105
03ef
ffd8
00c6
02aa
0487
ffff
fe0d
0114
003b
00e7
fff6
02e0
f994
ffad
011a
01d2
03a8
0063
00dc
0213
02d1
fff8
fda4
0052
025a
00f2
fff3
ffbd
f9a0
ffc0
0195
ff4c
040e
0132
fff0
01e5
0308
ffff
fb31
00c0
0025
0115
fff6
ff48
fc85
fff7
036f
fec1
039f
fef4
0003
0064
00f8
0008
feb6
01d6
ff82
0186
0002
0193
fccc
ffee
017f
ff9f
03e1
fdce
002d
0014
017f
0008
fe07
01e3
01bd
0034
000a
0130
000b
0020
0132
01a0
0317
00b9
0081
0120
02b3
0012
fc21
0042
01ac
0260
0016
00d1
fd2f
0053
0021
035f
045d
01ae
016b
ff5a
0377
0004
fec5
022b
01c9
011d
0010
ffef
fa89
0017
ff1b
008f
03ad
ff85
feee
ff21
01a5
fffd
fdae
018d
0175
fe94
fffd
0170
fb9e
ffe1
007b
0148
02d1
ffe5
fe96
018a
030f
fffa
f9d2
03a1
0315
feac
0008
0335
fa17
0003
ffba
009b
030e
ff57
004d
0235
028e
0001
fa77
011d
0382
fea3
0004
01a6
fee1
ff9d
0181
0161
01d2
ff54
0152
013a
02a3
0001
fc2a
0163
01e2
fe89
fff9
0149
0019
ffbd
0172
0258
0013
0129
febe
feaa
0428
fffd
faef
023a
0015
fdbe
ffea
ffe3
fb96
ffff
fec6
018c
047b
01c1
ffb8
ff85
032e
0002
0054
0303
0163
fe1b
fffa
01cd
fd5d
ffd3
fe6c
0139
04b6
0115
fedc
0130
0144
0002
ff14
019f
036b
fae8
fff7
00bd
fd8a
fffe
fdef
0016
029c
019e
fd8e
0046
0258
fffe
fcae
feed
0409
fc97
0003
fbc6
0011
fff9
fff1
01a7
0664
01c9
02f7
00ae
fd9e
0006
fdc0
fef5
0017
0026
0008
ff37
002b
fff7
0009
ff72
023d
fff7
ffde
ffb3
00ce
fff8
0008
0106
0037
fffb
ffff
010b
ffff
fffe
001c
0164
fff9
ff1e
fe8b
ffc4
0069
0009
fffd
0007
fffb
ffff
fffb
0003
fff9
fffb
0000
0001
0004
fff8
fff9
fffe
0009
0000
fffd
0003
0002
fffe
fff8
0008
fffb
fffc
0004
ffff
fffe
fffc
fffe
ffff
0009
fffa
fffc
0008
ffff
fffc
fffe
0002
0001
0000
0000
0002
fff8
fff7
0008
0009
fffd
ffff
fff8
fffc
0003
0003
fffb
fffa
0005
0000
0008
fff8
fffa
fff8
0004
fffc
0007
0004
fffc
ffff
0002
0006
fff8
ffff
0008
0003
fffb
fffd
0002
0002
0008
0000
fff9
fffd
0000
fffe
fffa
ffff
0006
ffff
fffa
fff7
fff8
fffb
fff9
0008
0002
0006
fffa
fffd
0008
0191
001d
feb5
0004
006b
0006
fff9
fff8
02db
0000
fdd5
fdff
fea6
0268
0008
fffc
028b
0012
fe32
0006
022c
0026
fffd
fff2
03ee
ff78
fd60
fdd3
fe7e
032c
fffc
fd26
0342
ff71
fef2
0000
0106
ff0c
0000
01b4
031a
0265
ff26
ffdc
0027
028c
0003
fd29
02d6
ff48
fefc
0001
00d9
fef0
0008
01c9
01fa
025b
fff6
0052
005e
0248
fffa
fcf6
02bb
00bb
fe59
0008
013f
fec1
0007
01a9
0193
026d
ff4e
ffec
00f4
0274
fff9
fcfa
03f6
fe5b
ff4a
0009
01bf
fed1
0004
036e
01e0
0151
012c
fec2
03a7
0309
fffb
fd48
ffd9
fc90
ffe0
0003
00ce
ff8b
0015
03f5
03b3
033d
0331
fe3d
0181
03e7
fffa
fe6d
0310
fc15
00b2
0006
0039
fee7
0007
04b3
ffb8
03c8
023e
fffb
fff6
020c
0009
ff9a
03a2
fcbb
02a8
0008
ff77
fd25
0012
043d
ffac
042b
00cc
ff49
fdee
0307
0003
ff3b
02f2
fe9a
006f
fffa
002f
fd08
ffd2
04bb
04bb
0196
fdf8
fe3e
fcc0
0545
0008
fbfa
04ea
0071
0288
0001
01e4
ff0f
ffb4
0323
0229
0515
02bf
00b8
0311
03f4
ffff
fd07
055b
fdc9
037d
fff7
ff3c
feb3
ffaf
031c
030b
0336
ff48
fea2
0287
01cf
0003
fd1b
019c
ff4e
0226
0003
00fa
ffcd
ff9f
0435
013f
01f8
ffc4
01db
01fa
0073
0005
feb1
ff82
fb00
022e
0008
0481
ff6b
ffc0
031d
03b2
fec6
fd76
fe8c
fec4
0305
fffa
ffe7
fe0e
fee7
0188
0009
0295
ff1a
ffb1
018e
015c
0015
fd60
ffd7
fff7
00f1
0001
fdca
ff41
fe78
ff69
0003
0422
ffae
0007
ffc4
0080
0300
fe6a
ffda
00b8
fd7a
0003
0160
ffb0
fcf1
0039
0009
0492
ffe1
0007
ffcc
fd3e
0312
0393
006c
0066
ff27
0000
01fb
ffc3
fed1
ff7c
0001
067e
fce4
0008
ff0f
fe4b
fed2
019f
00b7
011d
026d
fffb
014b
0004
ff13
ff63
fff9
04c8
fc47
0005
ff2b
feae
ff1c
02d5
ff4e
0376
000d
0008
0053
fffe
0008
fffd
fff7
060e
fc30
fff7
fffe
02eb
fcd8
fd09
ffa0
fe24
003c
fffc
fff9
0003
0004
0007
0006
fffe
fffb
ffff
fff7
fffa
0007
fffe
0005
fffb
fff8
0006
fff9
ffff
fffb
0007
0002
0000
0007
0005
fffe
fffd
fffe
0007
0001
0001
fff7
0008
fffd
0004
0001
0008
ffff
ffff
fffa
0009
fff9
0003
fffa
fff9
fff9
0000
fffd
ffff
0006
0005
fff7
fff7
fffc
fff9
fff9
ffff
0004
fff9
0005
0001
0004
0002
0003
