ff42
fe48
fffc
000f
fe35
feee
ff97
004d
0075
ffdb
ff80
ff2f
ffc7
000a
0055
fff0
0075
feee
ff6a
0012
0035
004a
ffbf
fff2
ff9c
0043
ffce
0000
fee5
0038
ffa5
ffc1
ffb2
feb2
0052
0045
ff74
0076
ffd6
ffb2
fee4
ffa5
ffe9
002d
ffe1
003e
feb5
0095
005f
ffba
000f
ffe6
0022
003b
ffa2
0035
ffd6
0031
ffe2
fff0
fe54
ffe0
ff99
ff9a
0011
0025
008b
ff9b
ff05
fe3e
ff8e
ffe3
ffde
004f
0067
ff85
00a1
ffef
ffa5
ffde
0013
ffb4
0011
00bd
ff80
ffbe
ff81
ff6f
ffb0
004a
003a
fff4
ffcf
fffb
0040
ff5b
0048
00cc
ff8a
0153
0053
ffa0
ffb4
ffbc
ff77
003b
ffc1
0085
0087
ffe4
0083
ff49
ffd8
0015
ff52
0005
0090
0020
ffd3
0035
ffe1
ffa3
0013
ff72
0001
0004
ffaa
003a
0017
ff1e
ff23
fffa
ffb7
feb1
fff8
004b
004a
ff20
006b
ffc5
ffff
ffbb
ff54
ffe8
ffa0
fe75
ffcf
ffba
00b3
ff69
ffe7
ffea
0000
00a9
001b
008d
ff13
000e
0088
ffff
ffeb
003a
002c
ffd6
0012
fffc
fff3
ffe9
ffd7
004d
ffeb
fff7
002a
ffce
ffed
ffe6
0060
ff94
ffe4
ffe0
ffac
0041
ff5e
0037
ff17
0063
0047
0077
ffcb
fee9
ffca
fe74
00df
0004
ffd5
0011
ff6b
ff8a
ff9b
0062
fef3
0080
ffbd
ffbb
00c7
0088
ffcb
ff48
ffe2
0091
000d
ffe8
0121
0092
ffa6
fffb
008a
0034
004e
ff52
00c4
00b2
005c
005f
00eb
001e
ff73
ffc1
ff96
006e
ff88
ff9a
00a6
004d
007f
00ff
0087
00d6
0058
ff34
0026
0009
0031
0023
ffc5
fff0
ffd6
fffe
0011
0023
ffdb
ffda
0007
0005
0016
001a
