80
08
e8
80
19
80
80
1f
4e
32
80
7f
05
46
32
f9
df
0e
c8
d2
f6
07
0c
ed
16
23
ee
e1
e7
cc
e0
f9
1a
9e
de
0c
80
19
38
80
81
5e
09
80
81
c8
b6
80
a1
92
7f
2e
52
44
80
80
80
cc
d0
29
80
1d
dc
e6
80
80
fc
2f
4e
f0
20
7e
11
80
2b
32
8c
7f
7f
c3
7f
f8
58
fb
80
5f
63
80
8a
a9
ec
9e
80
14
80
80
7f
7f
04
7f
80
0c
f6
3b
80
3b
b0
2c
51
80
db
80
80
85
6a
80
7f
80
da
63
7f
80
7f
cc
f5
80
b9
80
7f
4f
b6
7f
80
d1
80
7f
82
1d
80
23
80
9e
2d
80
80
80
b8
95
c4
cc
80
80
16
7f
0e
e8
80
23
80
80
b2
9d
5d
80
a4
80
83
e1
5b
80
7f
df
9f
0f
2f
f5
54
7f
80
e7
b1
80
80
1e
26
80
3d
0a
7f
80
c6
a0
f7
e8
80
c5
7f
e1
7f
d7
be
cc
a4
e0
5c
50
80
87
bc
7f
e3
80
80
eb
d5
8d
8e
80
10
4c
d7
80
7f
06
d8
ef
eb
db
01
1d
26
dd
ef
2e
2d
f6
16
f2
19
d6
7f
fe
a7
80
1a
80
80
47
7f
2a
80
27
80
ca
80
80
