ffea
0038
ffb8
0068
0002
ffb6
ffe7
ffe3
ffe1
fff6
ffc7
ffee
0054
fe9d
0028
ffe7
ffed
004d
0028
001c
000b
0048
ffd8
ffb0
0041
0013
0054
ffc5
0005
ff7f
fffb
ffc6
ffd0
007b
007d
ffc2
ffe2
ffc2
002d
ffe3
ffbf
0013
0026
0044
fffe
0030
ffc1
0049
fff9
0031
0027
ffbb
0003
0063
0009
005f
ffea
0012
ff89
000f
007f
ffb3
004a
ff92
0001
003b
0020
ffa8
ffe1
ff7c
0008
fffd
0028
000e
001d
ffdb
fff6
ffbf
feb2
0072
fffa
0010
ffc2
0020
0019
ff9b
002e
0038
ffa7
006e
ffd5
ffcb
ffab
ff53
fff2
ffed
ffde
0013
ff94
ffa6
0019
0003
ffef
001f
ffb3
0009
ffba
ffe3
0082
ffbe
ffbc
ffb0
000b
ffd5
0061
ff8c
ffde
ffd4
002d
0008
ff54
0000
0041
ffec
fff1
ff6e
0033
0068
0025
ffb0
0034
0052
ffdd
0004
0015
ffee
0021
0042
fff2
ffc7
ff6b
ff9f
ff52
ff37
ffdb
fe7d
ffbb
ffbc
ffb1
fe30
ffa5
ffe4
fff6
ffba
fff6
0005
0050
0032
0032
ffad
