bb
ae
80
80
80
d5
ac
fe
80
80
e7
eb
dc
e6
dc
3b
3b
13
71
80
27
e1
8e
18
e2
ff
e8
50
d8
13
e4
1c
1a
c9
e8
80
63
14
ae
83
80
e5
1a
c7
f0
cc
2e
57
31
a3
76
e1
11
c0
f8
54
ee
cf
e5
c4
fb
0c
ad
38
1c
04
38
1b
80
7f
4d
d0
7f
80
e6
36
fc
fd
ef
e1
38
fa
52
80
19
f7
f1
b2
68
b4
cf
4c
cf
b0
9d
ce
f4
f6
e7
a2
e6
23
80
54
13
f1
d9
ce
d8
1a
b3
c4
2d
80
db
80
03
4e
f1
ab
80
26
b6
7f
27
f9
dd
e0
4f
0e
9f
d6
03
4a
13
66
10
1c
cf
08
47
f0
c8
84
2c
d7
56
9b
bd
80
cb
06
0b
e3
46
d1
ee
80
90
c3
